node {
  name: "input_1"
  op: "Placeholder"
  attr {
    key: "dtype"
    value {
      type: DT_FLOAT
    }
  }
  attr {
    key: "shape"
    value {
      shape {
        dim {
          size: -1
        }
        dim {
          size: 160
        }
        dim {
          size: 160
        }
        dim {
          size: 3
        }
      }
    }
  }
}
node {
  name: "input_2"
  op: "Placeholder"
  attr {
    key: "dtype"
    value {
      type: DT_FLOAT
    }
  }
  attr {
    key: "shape"
    value {
      shape {
        dim {
          size: -1
        }
        dim {
          size: 1000
        }
      }
    }
  }
}
node {
  name: "conv2d_1/kernel"
  op: "Const"
  attr {
    key: "dtype"
    value {
      type: DT_FLOAT
    }
  }
  attr {
    key: "value"
    value {
      tensor {
        dtype: DT_FLOAT
        tensor_shape {
          dim {
            size: 3
          }
          dim {
            size: 3
          }
          dim {
            size: 3
          }
          dim {
            size: 16
          }
        }
        tensor_content: "\246\377\233\277\250nc\276N\261\013\277\t\007\320\275\177e}>\\LR?C\022\367?\004\365\212\276\362\336\300\276\235\3657?\210\371\"\276\223b\315\274\241\304\211?UxD<k\211\304\277)\'\375=\'j\273\277\004!\326\274\277\005l\276\267\200\237;C\025C>v0\337>]\306\256?pCN\274\241p\260\276\273\216\034?wTA\276\347\204Y\275\017t#?\033\234\350=\340\006\307\277rIx=\365\310z\277\350)\206=d\367\240>\300\nh=\313\306\267\275\371\013\234>l\n\252?\221I\243>r\274m\276\007[0?\311\026\213\276\177\360*>1A\014?\352\341\274>\010N\005\300z\344\032<{^p\277\251\264\034\276\031\352b\277>8\235\275\272I\245>\037QZ?W\003\301?\215\315R\276\204\221\226\276Z\314\205?^mG\276\237\334\';\241O\224?y\300v\276\217\333N\277\375\005\205=b\177\230\277=\233W=3|\373\276\216\360\033=g5\206>\r\303\323>\354\002\216?\006\333\227=\335D\210\276\t\361~?\240\020a\276;Wv\275\330\273@?\307\350\r\275\247\014d\277/\303\374\273\204\316]\277\342\025\022>\221)b=e\327\201=\225\215C\274\235K\225>\264\027\213?\255\205\305>\243X\'\276\223i\215?\350\307|\276y\210\013>\241\035.?\215sP>\035\312\272\2771\354\214\275\036\001Z\277\"[3\275/\033b\277\267\326\231\275i\034\305>IBZ?\361\242\303?\344\021\274<W\272\034\276H*\203?/N\347\275^\217|=\342\322\275?\242A\271\276[\222\013\277H\216n\275UV{\277n/\022>\304B\344\276\026@L=\206O\202>\231\305\344>\346-\216?\266\370\224>d\367 \276\277\302\206?\312\343\001\276\215\251\004=\325D\212?T\274\030\276\327C\034\277\225\033\216\2752;\036\277\257\374S>\306\035\264=\231\221\347=SF\220\274Aa\222>\265\333\221?<_$?(6\214\275W\272\234?\315\305\034\276\327\343<>\330\265\204?\024\342\233=\'>\230\277\213\243\013\276\332\215h\277\321*\341\2751\232\320\276\3479\372\275\026\215\030>\207_\207?-\246\025@\222\020N\276}\325\272\2763D\202?\272\223\006\275\\\334\221<\265\376\241?a\004\231=\215\351\236\277T}\304=\273Y\230\277\226\017\235=\354j\251\275\256\317T\274\227\270\252=\364\243&?\357\201\345?\254\371\227=4\337\246\276l\247e?<\206M\275t\365\344\274\217\357P?\210;r>?x\257\277$\006Y<\221\2636\277\237\343b>\253&\307>\250\014\035;\005\027F\276\222\315\367>\205N\325?\035g\260>\345\"\207\276_:\205?,\212\026\276\235\3453>\213|2?)I\340>G\260\364\2775\246\027\275\330\233\'\277\247\323\331\275\326}7\277i\261\220\275\017\230t>h\240\205?\277\215\372?\373rq\276\016\323>\276%\367\212?\244\371<\275\273F\230<\337:\227?|h\'\275\007\357\014\277\275\355P=B\032X\277\343a\013>-\"\257\276\207\260\204<\013\323\013>8_\"?\206p\274?\374n\265<\014\353H\27619\205?\347\305^\275\361!\270\2736\2659?N\262\023>\352\366\021\277\021\"\001\275\016\325\t\277C\017\201>}o5>W\256\204=\206\201\376\275C+\373>\3065\266?\370\373\226>2\024\311\275h\205\224?yn\252\275\33402>\337r*?\246\\\271>\207\026\224\2779\231\305\275p\")\277>\251A\275\330MB\277\266\321z\275\2622\235>]\302|?m\327\371?\245F\013\276\211U\'\275\366;\212?+\005\263=\347\361Q>S\215\214?\322\342\353\275\251M\367\276\235\277g\275K\261I\277B\332\025>J\014\264\276\211\033.=\n\312?>u=\016?\215\022\277?\200\250\021>\035\377q\275G\020\220?\352\371j=W\334\016>\255\030*?\337k\300=\307`\337\276\373\337\240\275)\216\010\277\225\017{>OfK>\3630\004>jg\267\275\363\277\312>\365\246\272?\r\226\340>\232\371\320\272\031\251\246??6\367<\"\264\237>=\241\033?\026\316\235>S\253\207\277\270\303\006\276\303\300\031\277AZ\304\275k\"\375\276j\353M\276w\244\347=\244\000\210?\3343\"@\276\375\351\275\210]\324\276*\242\336?\206A\210\275#\364\273<X\276^?\311\267J=vM\244\277w\322\254=\360\202`\277\271\355\354=B@\n\276c\335\365\275`\n\347<\222]8?\207%\000@\252T\005>\242\367\275\276\006\031\320?\273\326*\275g\343\024\275\034\312\225>\336\252@>G\000\263\277\307\364\326\274W\375\302\276\235l\216>\265\207\235>+\217\256\275\375\334\210\276\374T\373>u\252\363?\336\353\317>\215\226\217\276\245\004\333?\322\377\022\276\235fL>N\200\005>]\216\247>\330`\376\277\331\267\230\275+V-\277\236\220\241\275\311\234 \277\251|\356\275\023\207{>Q\266|?\035N\t@\3412\254\276\377w0\276\224\177\262?\253E\177\275\254\014\325=?\235(?\353\177\302;\265\0076\277\3738\253=o\234_\277F\245\t>\ntf\276\353\303N\275\276\324\025>7H\034?P{\333?;\352\241\275\367\355<\276\004e\251?>\314\354\274?d9=\003c\235=\317\362.>*\360*\277/\260\001\273\210\202\023\277kK\200>c6\213>\375\n\261;`\210\373\275 \354\337>\302\272\322?J\305>>+\200\335\275\206\362\263?\266\342\014\275\3676n>\026\202\035\275aS\262>\275\032\250\277\350\013G\275\'\017D\277\005\243D\275]l\027\277R\366\347\275\230t\226>\327\345w?`B\004@g+\263\276uQ\235\275h\355\212?\3374O=\005\2467>\r!7?\336\027\232=\260#Z\277r\317\217<#1]\277Ze9>6\000E\276_\271\205\274\242\343*>\216\032\017?\240:\324?\350F\301\275\025\007\242\275o\"\217?\340Zz=\233d\016>?\237\372=\016?x>\206\264E\277\262\005\325\273C\375\037\277\235\343\225>\272\263\237>\2741\354<\341I\203\275<\226\321>\272\203\316?\tHa>\330\333g\274\027e\236?8\1774=f\004\235>\327\264.\273\303\373\334>\322\320\270\277_a\204\275"
      }
    }
  }
}
node {
  name: "conv2d_1/bias"
  op: "Const"
  attr {
    key: "dtype"
    value {
      type: DT_FLOAT
    }
  }
  attr {
    key: "value"
    value {
      tensor {
        dtype: DT_FLOAT
        tensor_shape {
          dim {
            size: 16
          }
        }
        tensor_content: "\366\021\0056*\342+\271\354\027\3267%@\3577\366O\3056\305\334\232\267\022\230\260\266}]\215\266\251\362\3434/?\314\266\273\224\2634\242\266\2057\330\300\2147c\322\035\270\271\204\2667\263\203o6"
      }
    }
  }
}
node {
  name: "conv2d_1/convolution/ReadVariableOp"
  op: "Identity"
  input: "conv2d_1/kernel"
  attr {
    key: "T"
    value {
      type: DT_FLOAT
    }
  }
}
node {
  name: "conv2d_1/convolution"
  op: "Conv2D"
  input: "input_1"
  input: "conv2d_1/convolution/ReadVariableOp"
  attr {
    key: "T"
    value {
      type: DT_FLOAT
    }
  }
  attr {
    key: "data_format"
    value {
      s: "NHWC"
    }
  }
  attr {
    key: "dilations"
    value {
      list {
        i: 1
        i: 1
        i: 1
        i: 1
      }
    }
  }
  attr {
    key: "padding"
    value {
      s: "SAME"
    }
  }
  attr {
    key: "strides"
    value {
      list {
        i: 1
        i: 1
        i: 1
        i: 1
      }
    }
  }
  attr {
    key: "use_cudnn_on_gpu"
    value {
      b: true
    }
  }
}
node {
  name: "conv2d_1/BiasAdd/ReadVariableOp"
  op: "Identity"
  input: "conv2d_1/bias"
  attr {
    key: "T"
    value {
      type: DT_FLOAT
    }
  }
}
node {
  name: "conv2d_1/BiasAdd"
  op: "BiasAdd"
  input: "conv2d_1/convolution"
  input: "conv2d_1/BiasAdd/ReadVariableOp"
  attr {
    key: "T"
    value {
      type: DT_FLOAT
    }
  }
  attr {
    key: "data_format"
    value {
      s: "NHWC"
    }
  }
}
node {
  name: "batch_normalization_1/gamma"
  op: "Const"
  attr {
    key: "dtype"
    value {
      type: DT_FLOAT
    }
  }
  attr {
    key: "value"
    value {
      tensor {
        dtype: DT_FLOAT
        tensor_shape {
          dim {
            size: 16
          }
        }
        tensor_content: "\220\244\207@+ \353?\356#\033A\201\312&?\377W/?`\240\243\277\235\354S\276\203/\214\277\340\266-?\222\216\246?\2044\002@\033\246&@k\212x\300\360\341\t?~\r7\277?\220\347\277"
      }
    }
  }
}
node {
  name: "batch_normalization_1/beta"
  op: "Const"
  attr {
    key: "dtype"
    value {
      type: DT_FLOAT
    }
  }
  attr {
    key: "value"
    value {
      tensor {
        dtype: DT_FLOAT
        tensor_shape {
          dim {
            size: 16
          }
        }
        tensor_content: "\026\307\233?r\277\007\300-\277\333@o\001\032\277(X\363>\037\353\304\277drq\300\323pm\300wp\203=3\355C\300\216\242\301\277\266\026\231\277\216\330-\300\312\305\242\275\251\274\321\277\177\356y\300"
      }
    }
  }
}
node {
  name: "batch_normalization_1/moving_mean"
  op: "Const"
  attr {
    key: "dtype"
    value {
      type: DT_FLOAT
    }
  }
  attr {
    key: "value"
    value {
      tensor {
        dtype: DT_FLOAT
        tensor_shape {
          dim {
            size: 16
          }
        }
        tensor_content: "\201\200\'\305\350\312!C\2242q\304H\237\332\302\023\253\317C\244\r\nED\224\254E\261F\310B\334\257#\3047;fE\277:t\303%\242\220C\222\254\027E\235\213\232C\224bW\305\362\r\224\301"
      }
    }
  }
}
node {
  name: "batch_normalization_1/moving_variance"
  op: "Const"
  attr {
    key: "dtype"
    value {
      type: DT_FLOAT
    }
  }
  attr {
    key: "value"
    value {
      tensor {
        dtype: DT_FLOAT
        tensor_shape {
          dim {
            size: 16
          }
        }
        tensor_content: "\316\344\307I\350\262BF\303x7H\277\227\036E\312\317\tG\013]\200I\275\000\320J~\025kF\355`\273G\334\261>J\363NfF\336\246\251F\216\203\233I\024<\002G=\302-J\031K-D"
      }
    }
  }
}
node {
  name: "batch_normalization_1/ReadVariableOp"
  op: "Identity"
  input: "batch_normalization_1/gamma"
  attr {
    key: "T"
    value {
      type: DT_FLOAT
    }
  }
}
node {
  name: "batch_normalization_1/ReadVariableOp_1"
  op: "Identity"
  input: "batch_normalization_1/beta"
  attr {
    key: "T"
    value {
      type: DT_FLOAT
    }
  }
}
node {
  name: "batch_normalization_1/Const_4"
  op: "Const"
  attr {
    key: "dtype"
    value {
      type: DT_FLOAT
    }
  }
  attr {
    key: "value"
    value {
      tensor {
        dtype: DT_FLOAT
        tensor_shape {
          dim {
          }
        }
      }
    }
  }
}
node {
  name: "batch_normalization_1/Const_5"
  op: "Const"
  attr {
    key: "dtype"
    value {
      type: DT_FLOAT
    }
  }
  attr {
    key: "value"
    value {
      tensor {
        dtype: DT_FLOAT
        tensor_shape {
          dim {
          }
        }
      }
    }
  }
}
node {
  name: "batch_normalization_1/FusedBatchNorm"
  op: "FusedBatchNorm"
  input: "conv2d_1/BiasAdd"
  input: "batch_normalization_1/ReadVariableOp"
  input: "batch_normalization_1/ReadVariableOp_1"
  input: "batch_normalization_1/Const_4"
  input: "batch_normalization_1/Const_5"
  attr {
    key: "T"
    value {
      type: DT_FLOAT
    }
  }
  attr {
    key: "data_format"
    value {
      s: "NHWC"
    }
  }
  attr {
    key: "epsilon"
    value {
      f: 0.001
    }
  }
  attr {
    key: "is_training"
    value {
      b: true
    }
  }
}
node {
  name: "batch_normalization_1/keras_learning_phase/input"
  op: "Const"
  attr {
    key: "dtype"
    value {
      type: DT_BOOL
    }
  }
  attr {
    key: "value"
    value {
      tensor {
        dtype: DT_BOOL
        tensor_shape {
        }
        bool_val: false
      }
    }
  }
}
node {
  name: "batch_normalization_1/keras_learning_phase"
  op: "PlaceholderWithDefault"
  input: "batch_normalization_1/keras_learning_phase/input"
  attr {
    key: "dtype"
    value {
      type: DT_BOOL
    }
  }
  attr {
    key: "shape"
    value {
      shape {
      }
    }
  }
}
node {
  name: "batch_normalization_1/cond/pred_id"
  op: "Identity"
  input: "batch_normalization_1/keras_learning_phase"
  attr {
    key: "T"
    value {
      type: DT_BOOL
    }
  }
}
node {
  name: "batch_normalization_1/cond/Switch_1"
  op: "Switch"
  input: "batch_normalization_1/FusedBatchNorm"
  input: "batch_normalization_1/cond/pred_id"
  attr {
    key: "T"
    value {
      type: DT_FLOAT
    }
  }
  attr {
    key: "_class"
    value {
      list {
        s: "loc:@batch_normalization_1/FusedBatchNorm"
      }
    }
  }
}
node {
  name: "batch_normalization_1/cond/ReadVariableOp"
  op: "ReadVariableOp"
  input: "batch_normalization_1/cond/ReadVariableOp/Switch"
  attr {
    key: "dtype"
    value {
      type: DT_FLOAT
    }
  }
}
node {
  name: "batch_normalization_1/cond/ReadVariableOp/Switch"
  op: "Switch"
  input: "batch_normalization_1/gamma"
  input: "batch_normalization_1/cond/pred_id"
  attr {
    key: "T"
    value {
      type: DT_RESOURCE
    }
  }
  attr {
    key: "_class"
    value {
      list {
        s: "loc:@batch_normalization_1/gamma"
      }
    }
  }
}
node {
  name: "batch_normalization_1/cond/ReadVariableOp_1"
  op: "ReadVariableOp"
  input: "batch_normalization_1/cond/ReadVariableOp_1/Switch"
  attr {
    key: "dtype"
    value {
      type: DT_FLOAT
    }
  }
}
node {
  name: "batch_normalization_1/cond/ReadVariableOp_1/Switch"
  op: "Switch"
  input: "batch_normalization_1/beta"
  input: "batch_normalization_1/cond/pred_id"
  attr {
    key: "T"
    value {
      type: DT_RESOURCE
    }
  }
  attr {
    key: "_class"
    value {
      list {
        s: "loc:@batch_normalization_1/beta"
      }
    }
  }
}
node {
  name: "batch_normalization_1/cond/FusedBatchNorm/ReadVariableOp"
  op: "ReadVariableOp"
  input: "batch_normalization_1/cond/FusedBatchNorm/ReadVariableOp/Switch"
  attr {
    key: "dtype"
    value {
      type: DT_FLOAT
    }
  }
}
node {
  name: "batch_normalization_1/cond/FusedBatchNorm/ReadVariableOp/Switch"
  op: "Switch"
  input: "batch_normalization_1/moving_mean"
  input: "batch_normalization_1/cond/pred_id"
  attr {
    key: "T"
    value {
      type: DT_RESOURCE
    }
  }
  attr {
    key: "_class"
    value {
      list {
        s: "loc:@batch_normalization_1/moving_mean"
      }
    }
  }
}
node {
  name: "batch_normalization_1/cond/FusedBatchNorm/ReadVariableOp_1"
  op: "ReadVariableOp"
  input: "batch_normalization_1/cond/FusedBatchNorm/ReadVariableOp_1/Switch"
  attr {
    key: "dtype"
    value {
      type: DT_FLOAT
    }
  }
}
node {
  name: "batch_normalization_1/cond/FusedBatchNorm/ReadVariableOp_1/Switch"
  op: "Switch"
  input: "batch_normalization_1/moving_variance"
  input: "batch_normalization_1/cond/pred_id"
  attr {
    key: "T"
    value {
      type: DT_RESOURCE
    }
  }
  attr {
    key: "_class"
    value {
      list {
        s: "loc:@batch_normalization_1/moving_variance"
      }
    }
  }
}
node {
  name: "batch_normalization_1/cond/FusedBatchNorm"
  op: "FusedBatchNorm"
  input: "batch_normalization_1/cond/FusedBatchNorm/Switch"
  input: "batch_normalization_1/cond/ReadVariableOp"
  input: "batch_normalization_1/cond/ReadVariableOp_1"
  input: "batch_normalization_1/cond/FusedBatchNorm/ReadVariableOp"
  input: "batch_normalization_1/cond/FusedBatchNorm/ReadVariableOp_1"
  attr {
    key: "T"
    value {
      type: DT_FLOAT
    }
  }
  attr {
    key: "data_format"
    value {
      s: "NHWC"
    }
  }
  attr {
    key: "epsilon"
    value {
      f: 0.001
    }
  }
  attr {
    key: "is_training"
    value {
      b: false
    }
  }
}
node {
  name: "batch_normalization_1/cond/FusedBatchNorm/Switch"
  op: "Switch"
  input: "conv2d_1/BiasAdd"
  input: "batch_normalization_1/cond/pred_id"
  attr {
    key: "T"
    value {
      type: DT_FLOAT
    }
  }
  attr {
    key: "_class"
    value {
      list {
        s: "loc:@conv2d_1/BiasAdd"
      }
    }
  }
}
node {
  name: "batch_normalization_1/cond/Merge"
  op: "Merge"
  input: "batch_normalization_1/cond/FusedBatchNorm"
  input: "batch_normalization_1/cond/Switch_1:1"
  attr {
    key: "N"
    value {
      i: 2
    }
  }
  attr {
    key: "T"
    value {
      type: DT_FLOAT
    }
  }
}
node {
  name: "activation_1/Relu"
  op: "Relu"
  input: "batch_normalization_1/cond/Merge"
  attr {
    key: "T"
    value {
      type: DT_FLOAT
    }
  }
}
node {
  name: "conv2d_2/kernel"
  op: "Const"
  attr {
    key: "dtype"
    value {
      type: DT_FLOAT
    }
  }
  attr {
    key: "value"
    value {
      tensor {
        dtype: DT_FLOAT
        tensor_shape {
          dim {
            size: 3
          }
          dim {
            size: 3
          }
          dim {
            size: 16
          }
          dim {
            size: 16
          }
        }
        tensor_content: "\227\206]>\275\"/=\3046\363\275Ac\373>Y\020\235\276\331\354<\275<\227w\276\000\257\205\276\377\"\222\2753\375\016\276P85\277\001\272j\276\206\2526\276\302\001\021=p\264\006\276\276\201(>\032\014\033?\224\340\202\275$Hf=kf\244\276\375w\261\276\032\2713\276\245\010!>D\226\360\275yP\212\275\021\365\014>\355\035\263>\206\323\007=\275T\230=oR\242=\000\336I\275s$\250\276\001\241\337\275\211\362s>L\177K\276\315\230\010?\264\026\317\275\232\305\357\273]\023\205\276\367\252\241\276\205\362=\276\205\310\031\276\307$u>\201\315Z\276)\243\231\276/y\014\276H\274\324>#\200\004?\240\2318\275\302\036\212=\331a\206\276\235\341\032?q(\304\265\037\034h=O\360|<\370\\\266\276\274\000\001\275\245\272\r\275\202+\257=\222\242\231\275bDZ\276\000\375\317\274,\r!?\034\t*?\366\034\000?\221\326\357<\373\t\345=XcK\276\020\361\227\276\332\354\230\276\014\033\037=~t\201\275v\025\n\274vGa\275\2060\017?\023\233\202\275%I\005>Y\324\221<\345\363\222=\231\276\312\276\010<\023\276?\320\003>\325/\214\275QEB\275o\277d\276V\n\272\275a(4\276\302\267\241\276\213\361z\275\220\003\205<d\252\377\274*:O\276\031c\311\276\274oT\276\331|F=\361R}>\211\'}>\330be\274\3145)\275\342%\341\276\337\241Q\2752\332\001\276\357L2>:\031\264\276xb\006\275\362\005\033=\242.j\276\340S\035\276\3175\205\275\202a\n<\214\326\374=f\'\306=@\344\326>\343\243@=!\354\035=\310\274\030\276x\324\321\276\366\311\032\276J\335\277=\327wk\275\333\'\255;L\244n>L\341g>HM\021>\347\014&>\031\035\017<Q\223L\275\260jO\276z\220\250\275\223\000\027\273\356\275\227\276SK\002?\t\227Z\276\352\220\000=\320=\352\275\240\031\377\276\203\327,=\022\200\253;v\301\301=\257\303{\275{\263\006\274\005\200\256\273\036\236\026?\010\177+?\021f\325=\363\374\271=\205\202o\275\\\255\374\276Zg\026?y\307-\2751\322\370=\302\233\353<\031:\017\276jZ\312\275\'\020$\276b\354^9\000\207\017\276\250\027E\276\006\352\316>-1\341>X\r<\275\300\202(>\346\027U\276\323=\r?\022\207\026\276$Dn\275\036u\214\276\021Y \276g\254\275\275\342\251\252\275\'\365\275=\226\3374\276\311\311\205\276\274\221\372\275P\306\323>\332\276\n?\231R\271>fm\227\274\250\021\335=\364\033D\276\010\211&\277M;\222\276.T\212=\266\214\206\273\013\321\260<Z\332\274=\334n\310>\324\\\200\274\323Q\020>\261\206e9\010\336\302\275\247<c\276\263\223\203=\035\0266=iN\275=\0025\201\276\251\312\013\277@\326\032\276o\347\271\274\212\315\213\276\240OS;\343\003\376=,\010D\276\225U\235<\003\341\243>m\314\226\274\263P\321\276:\245\354<0\223-?\357\374#\275\227\030\021\275\277\277\371\276\301H\037\276\374\223\275=}\274@>8a\206\276n9\006\276\245\037`>\272\230\223>V\242Y>\271\320\317\275,#\230=d\266\232\275\300q\271\276\326l\220=l\362\347=R\024*=\300@W>\024 \350\276\314\367\002\276\245\337\313\276B.f>\264\372\257=\221\"\243\276\267\032\235>VJ\010\2761^\027>\031aA\276\344\350#\276\220{\334\276\341i\206\275\257\375\027>\352\341^\276\321m(?|\005\265<\\Qa=\202\354\277\275\275\2067\276\346\374\220\275_\\\241\275\004\006\010>\262\211\375\275\300Z\233\276E8+\2761G\347>\027\275\n?\351\223/>T\013\342=\345#\377\274\306\367\027?\024\312m\276\354.\214;\231\240\021\272]\222\353\276\220G?<u\177\361\275!d\323\276\027\340Z\275\330\324i\276\213{8=.>\237\276Y\n\332>\332@#?Q6\340\274K\024\200=,\027<\276G\\\240\276[\337\336\275\222s\366=eV\246\275=\327M\275iU1>\000\366\207>\002s\r=*x\256:\"bW=\021\320\270\275=\363\243\276\301l\024\276\027\024U>\337\020(\276\244\201\374>\332tV\2760\243\r\275\237=\220\276(\323\241\276\252\303\004\276v\304c\276e%>>\3430\332\275\217\354\233\276\266\274\022\276%\343\325>\014\030\356>\366D\351\275\225\354o<F2S\276\374\245\355>\311=\357\2753N\231=\243\343\246;\240\356\336\276\335\205W=\331\307q\275\260s9>p0h=\372ym\276\216\243\022\275*o(?\257\206 ?\237\326\366>\355\360\301<\251\374\375=\266\016\214\275\0065\255\276j\253\214\276\r\3710=,n\227\275,UR\274\316\014e\275\341\037\366>d\031r\275\242]g=\037^1<h?\262<j\326\256\276\264\256E\276\342/\373=)U\314\274\034\265\264\275`$\250\276_\374V\275mw\377\275$\001\204\276v\262U\275\214\332\210<\311\025\201=\nxN\276\334\\\336\276+pF\276\253\364B\275\255Bw>\366j^>\006b{;\206W\034\275\271~\313\276\210\214\022\275\231\256\261\275]\031#>f:\322\276\352!\226\274@g\271=\237,[\276\211\341\r\276\200\223z\275\273\032\251<\365x\023>?\027j<\310\340\317>Z\213\202=\202\022\226<\034co<\362\274\340\276\324\354\223\2756w\372=>\200\227\275\212Y\310\274W\362e>Mr\352=.\026\373=;m\220=\023f5=\212S\230\275\203\345U\276\3558\t\276z\005O\275A\312\230\276\301\271\255>#\2561\276\022[r=\363\303\205\276\361\234\010\277\372\234\007>#\211\004<pH\323=\344\202\255=\320H\240\274Ga\001=n\352$?\301`)?\202\243\017\273u\247\201<f[\254\275\2551\007\277\374\216\320>\026\221\200=I\275S>,\242%\276J\342K\275\302\364\200\275\320\335\312\275\301\274t=\225\267\212\276\215\016@\276\371\335\263>05\275>\212\357\305\275g\232\n>\376\033\001\276\003&\001?S\341:\276\375\\\2779\246/\201\276(& \276\271\037,\275Q\354\030\276\307\324\010>LP\350\275\007\010\253\276\337J\305\275W\256\367>\265\330\016?\260\260\265>e:6\273t]\251=\377\244g\275\263\300\033\2770\271e\276o\tH=\323\222x;)on\273v^\331=,\275\236>\244v}<\263\352\225=F\247\302\273\220\r\252\275\221`{\276\3544-=U7\206=\3549Q=\260\302l\274`\302\t\277\331\217\301\275t${=E\265U\274\260?4<\275\256\010>\251KZ\276\251$q=\3515\223>\027b\365:\226M\331\276#=\261=\201\356=?\270\031;=3\241\001\274\026>\276\276W&^\276\312\336\002=\027\232^>\275I\225\276\371\260\340\275\326\006\237>h\300\225>F\2338>\217Y\262\275%\244\237=\343\267\001\276f\013\250\276\303\341\033>\211\374\002>\335\271\007>11\213>nu\314\276c\367\307\275\nb\340\276&\0145>q\315/>ek\240\276?\265\207>\022\210\224\275\322\244\010>\246\323\000\276:}\303\275/\366\245\276\3073\341\275\302\213\367=\235\215\001\276\332\002\036?\240\274\225\274J\322\256=\375\004\032\276c?\215\2767\377\334\273?\223\025\276\326\265\205>\3445\357\274s\n\233\276b\032$\276\237[\363>x\350\001?\177\301\206>\355 \271=\217\003\005\276A,\027?\317.\227\276\037Z\213=\343\256\001\275\355\274\201\276?G\375\274\367\344Q\275\217`\\\276.=\206<?G\223\275{;\347\273s\236\351;>\022\262>\326\276,?\302\307\203\267\\\310\234=\200{7\274\376\226\260\276\203}\223\275Sf\367=Mp\250\275Q\235\311\274\363\344\\>e\"\211>RJI=vo\202\275\344\006C=\rR%\276\302Z\240\276\365~M\276\263\205\031>IL\r\276\245TJ>V\256\260\276\374\201\272\272\264\365g\2763\337=\276\246\346\212\275v\310\001\276bU\374=\017\013\332\275af\334\276r\345\307\275\345\317\262>l:\261>\017\342\001\276\332\201\235;\317\314g\276J\271\246>rkj\276a \225=\273\335\202\274\2012\353\276E\352\254=_\267M<\3454\207>\336\236A=b]S\276\375L&\275\317\1770?2c!?\201\200\003?\010\036\\=F\021\304=f\327\230=C\301\322\276\217r\220\276\223\311\364=j\020\300\274/(;\2759\220W\274\327\245\000?]\320\317\274\231wR=P$\341;\216\363\306;\334\301\215\276~#*\276+\201\365=\331\372n<\250\312o\274 \245\203\2760\245B\275*\333\314\275^{\232\2765\230\332\275\030\222\014=\336\336\006==\352D\276\247\225\243\276\221\2534\276\331\257S==\200\217>\320\003\202>\333;`=\365~\205\275\204Z\230\276u\234V\275\353/\217\275_\217\004>Y(\356\276\247\307\300;\376K\371=\020\356%\2763\250\372\275\001N\346\275|\321\214:\271\270%>\301\272\230=\227\345\342>Q\344\377=\266\363\225\274\330\203+>\227\262\016\2777zX\275o\270\324=\214i\344\275\025\317\013\275\364\277\206>\271\225\304=K\036\013>\021\246\200<\027\272\220=\212\350<\276\264^x\276\317KA\276\304&]\275J\356\204\27693`>\006\230/\276\232m\226=i\254L\276\307\374\366\276&\244\">\201\203U;ni\024>\234\312&>$\356\006;fX\274=\344\016,?}\016;?\320\035s\274\316\331\371<a\203\312\275\334<\267\276\234\242\243>\262\344{=\322\236\r>n);\276`=\347;I\013\375\274L\236\\\274\r\004\235=\351\367\222\276 @\023\276t\343\352>\314u\364>zC\002\276h{\276=\240\316\271\275<`\316>\366\263\257\276\351\225\314<$\265d\276\241\274g\276\307g\312\272\214\314\034\276p\213\354=\270\037\255\275\370\\\247\276\270\310\215\275g\276\356>\364p\007?\220\360\316>\251\264\254<=gy=\013)\000>\260\354\r\277\305\034?\276\031>M<\257#H=<\234\025\274\332\275.>\265E\221>\007\220{\274iy\243=,\355\354;\257\322\\\276\216\200\211\276\267\264\224\273]\332\373=\02157=\252\360\227>\316\354\002\277\213%\300\275\2646\262\275\307\020\n>Wi\031\275Q~2>\034g\202\276C\261J=\234k\223>S(\242=\266\254\375\276X\233\221=\221\257C?|\341 =\317nt<\003\312\026\276\240]1\276\346\370\201=4\006p>G\226\007\276\343x\234\275$\335\260>K\252}>u\351U>\377\377\326\275\032r@=\357\020\020\276\006\317\224\276\003\371\354=\332+\351=\271U\376=\307T\242>3\033\013\277\177$\266\275\027\236\252\276\316 3=\2223\003>\232mf\276~\250\245>\362\223\373\274\322!\004>+\320\240\275/\017\010\276\013\324\222\276\025\266\356\275\350\274\217=\006\200\343\275\003\372\371>q\2629\276U\'\331=F1\n\276\"\234\247\276U\202\211<\353\r\001\276\232\225\226>\270\357h\275+\031\246\2764\231/\276}\202\005?\342\232\005?\"\022[>,\200\326=PMm\276\235\225\217>\003\350\244\276&$\024\276\260YE\276\364\023b\2761)y\2754{\014\276\323\2640\277<\177\003\276C\227\211\276b%|\274\247\244\n\276\270h\022>\355\211)?\2318\273\274:\355\026<5D\211\276 \205\352\276\03508\276\232PN>W\233\305\275\3746\204\275\224\345\020>&\320\255>H}P=\317\275\234=o\267\215=\t\360\216;\355<\216\276+\371\342\275<\004\221>\267\001|\276K@\000?/\247U\276\232|\317\275\271\373\212\276\177\231\227\276xe]\276\365\317$\276\265S,>\330{?\276^Ks\276\240.\334\275\310\n\306>\001#\362>\003\177\323\274\354\020\200=\354\310\213\276\215\355\362>\300I\352\275\\\222V\275\335\273v\275\217\nG\276Y{b\2759\032D\275\000\240=>\277\331\025\276+7x\276J\261\000\273\306\335#?=\350<?\\\336\365>\325K\337<\2035\223=\205Y_\276\3103\336\276Fo\233\276\27047=5<\257\273\302\270X\274_\340*\275Y9\023?\247Ov\275u\324\316=lPh:\361\202>=r\327\260\276\356`B\276\373\206\332=\233\236\361\275\0028\253\275`\225\250\276\267\244\267\275\274\016\215\276gc\023\276\261`\323\274\3638\017=l3\265=%\346\203\276\037>\261\276\232?^\276w\217\000>\365@\231>\273\232x>\237J\356\274`)\221\274\267\021y\276\232V<\275\025\002\243\275\330\003u>\030\321\317\276}\367\243\272@)\220\274\035\t\021\276@-S\276\214\020\031\276\266\302\027<\277\303\016>P\002\274=<\220\000?Mr/=\244\266\234=\244h+\276\022 \207\276\315\263\004\276\2470\006>\375+\t\276\332\033\251\274\032\217L>\256\215\223>\244\210\023>\177\343m>`2\351<\3617E=\225\344\220\276k\007\247\275&HT=Fo\300\276i\364\272>\245\230\202\276\033=I\275\320\344\023\276Bg\231\276\352\236:\275\245d\203\275S\343\023<\002\252\252\275\367\035\357\273\233(\252<A\232\013?\242\2532?\255\220\006\276\024p\004\274\360\362l=\243\301\361<\262\364\361>\3246\212=\235\267p=\254\2462\276\343\364\250\275\306\226\263\275K\213\200\275\340h,\276\262\037\355\276\222\373g\276\373\030\014?\245\257\003?\263w\214\275\023\364x>\344\352\205\276#\240\030?\036t[\276l\021\227\275\257\323\210\276\33399\276h\316\377\275\250g\367\275\215\275\254=\252o\002\276\004*L\276\341\340\277\275\025\346\303>1\255\352>\326\260\267>\203\2743\272\324\225\310=\203\315\347\275w\035\"\277\260\263t\276I\341\016>{\005\r\276\243j0=\327k\214=\032\221\305>\315\237\254<T\033!>\205\322\335\273\264\330R\275\360{\212\276n\343\312\275\214\303\271<\2206\332=,@\235=Z\203\016\277\335\234\225\273\177\200\025<\277\367\013\277=A\232=\376\306\321<\347\265-\276\301\006\211\274\353\'o>~\323\275\275OL\311\276\320\226E=\304L8?\376x\321\274R\365d\275\026\036\274\276=\\\243\276u\346\240=\231\247\225>;\311J\276\024!\026\276t\014a>oj\223>\374\256\204>K/\252\275&\272\237=\017F<:l\225\206\276\t\340\260\275\251W\022>\251z\254<\2177\221>\000\270#\277\311l#\276\247\366\262\276)\002|\272\377\277\241\275\353\357H\276-\340/>\366\231\221\275\325!\270=\356\247\267\275\003c\253\276\034\364\226\276H\205\205\275\230\343\354=\307\321g\276\256x\021?\003H\312\275c\307\243\275T:S\276\372\274\010\276\265\251\333\275\026^\273\275fco>\301\2473\276\241\343\216\276\021\230\004\276\231\217\372>\205\312\033?Q\232\211>GQE>i\020\021\276\025b\000?\274\303\346\275\226B\353\275T\362\024=\277\273\263\276\274\201\301\273\232;\266\275\260&\354\276\021S\252\275T\000\201\276e\t\214<\265\371\237\276\342\\\226>\345\272)?f\007\266\273\250C\261<a\322\000\276na\003\277\215\004\362\275\225\301N>\345k\241\275\036\001\221\275\334L<>q\005\207>0\332l=\340V(\274\263qt=\302\342B\275\355!\237\276\246\334(\276\222\232s>\204\024S\276V\367\276>rJ\202\2764G&\2756s\277\2769\221\234\276\311\347*\276\272\347K\276\311\244l\274uX\247\275\247\177\215\276@\267\013\276j\221\261>\206\372\312>\244d\344\275\304\334S<\3658Z\276\031\206\302>\334jW\276\'\257.\275t[\346\27509[\276I\233\014=\364\325\272\2751\205c>\302\206\243\27440\203\276\255/\005\274\211\335.?\225\2004?\212\327\004?\314\242I=\256\236\241=\372!4\275\231\245\323\276\363\353~\276e\372\257=@\225\220=\3731\220\273\270\262\035\275$\276\026?c p\275\016\2121=\207x\224<\342p\207<i\321o\276R\246}\276\210\260\331=6\022\233\275\257R\006\276\016\226\357\276\236\230\263\2755\266h\2763\252D\276\234\275\010\274\326)\311<\016\326\001>\214$J\276\311\251\334\276+\217@\276\365\027\007=\310\244\205>\341\314f>\320\2249\274\240\243g\275\315x\203\276\224u\246\275\300Nl\275\306\224\204>\226\273\373\276\352\266\257;T\240\311<\247\210\307\275\370\331/\276qG\334\275\261Q8;-\223\021>\306\231M=\n\033\013?\022\355\017=\005\317\240<\037S =\314b\246\276\304\356\026\275\263c\016>\266-\304\275\004\206.;\03036>\2447+>j\036\014>\363\304\367=\342\233<==G\324<\020~\230\276Q\337\363\275j,<\273W\210\267\276o\372\221>\374\317W\276\244\277\234<\3666\205\276\377\376\224\276m0\202<\\\357\222\274\352\215\261=\313t\205=\211`m<\310Q%=\000]\034?\331\017H?\207\033d\276YE\020\275\321\242#<\017\303w\2768\277\261>\256\351\354=\226c\325=\370\257\210\276eH<\275\250\212\266\274\365\366\362<\303\225\365\275\270\017\000\277{\207\'\276\243\257\007?\374f\332>3]\350\275\362wI>\022VK\276*i\000?6}h\276\200\364\226\2748A\243\276-\345\024\276\216Z\232\275\366\241*\276\000X\336=\364\201\010\275DtO\276S\375\256\275\355\301\273>\335\220\346>\007M\274>\035\354*<\276\224)=\245\356\214\274\210X-\277\263\342D\276\335i\347=\302\030I\275\222h\202<xc\325=\023\013\237>\n\304%<\305\267\231=\252[\237\272h\r\305\2751\251\231\276\217\034\337\275\202\317&=K\247\224=\340sr>\t\007\036\277\224.\307<\227\336\247=Dj\371\276\010\246\032=\257\332\253=\265c\233\276P=8\274%\275x>2\253\227\275\337\317\316\276\332\035\034=\016\326;?Oc;=h\014e\275\260s\177\276|\025\331\2765O\252=c\025y>\275\025}\276\226\037\347\275\016u\216>!\275t>\252-\205>c\302\267\2754\237\254=\312O\312\275\370\276\244\276*\272\222\274\032\207\026>0y\232=\021!\267>N\212\021\277gc-\276\224H\221\276\036\210\371=\022\236)\275A\201>\276\002\234D>O\305E\275\303\035\242;\340#\266\275\250\214\226\276\235\265\273\276\327\364\277\275\252n\000>\022\320\016\276\225\240\002?w\036\024\276M\206\357\274\212Rd\276\274\273\021\276\276\256*\274\016\346\026\276\357\000\212>-Z|\275L\362\262\276\234\357\316\275\306\245\003?\026\020\016?\277\352\200>\307\301\007>\212\201\022\276\320\223\016?\302Y\242\274x\'\242\275\317\274\t;\006q\220\276p\034\321\2752\223\357\275\243\332\256\276\216y\215\275\211\006\037\276|\216\222\275A\360:=\202\337\216>\260\2331?p\355%=\323\370\255;y3^<\001\245\000\277\tx\232\275\236\3373>m\306\341\274(\217\223\275\243\\K>?3\177>\364\300\210=\244\261L\275\037\214\177=\227\030\006\276\264^\251\276LYC\276C\220M>\014\0074\276fB\'>V\304\257\276\242\233\217\274\3338\273\276#i|\276\005\365\352\275\261\'B\276\361\225`\274c\207\010\275\224\250\257\276\354l\214\275\374\321\243>\177.\326>1\333\360\275`\321\275\274\245\201\203\276\210]o>pZ\223\276\001\323:;\312%\341\275e\024n\276\357\223\211=c\233\264\275j&\205>2!\210<M\201S\276\366\310\265<}\0049?\022\245,?\177\346\377>xi\216=\033\225Q==\310\357=T\n\264\276:\240u\276\223q\277=G\345u=d\340Q\275\337G\027\275\372e\023?\200\2019\275\244\333\266=\301\324\311;\352q\032\275\232\010x\276\353T#\276N\312\333=x0!\275\352\r/\276y\371\266\276\323k\036\275j\235\026\276\n,`\276\205\356,\274%\nO=\n\td\273Z5:\276O\207\300\276\273O\'\276{j\312=\311B\204><\207W>\277?\n=FVx\275\005\230U\276\177\333\342\275\322-)\275\200Jm>J)\023\277.\323\364<\310\032\303=\336B\302\275\364\'\017\276#\021\000\276\001\2664\273GZ/>O\272\002=mZ\022?\271c\330=\320\022w\274\221\344B>\262\363\307\276\332\252B<\365\332\003>\035\217$\276j\200\217\274\317cb>l\320\024>\371n/>G\020\213=\3532\\=AU\200\275\272\025\235\276\327?.\276\371+\272\274MH\203\276\340\340g>\256\253\251\2753>~<\267kI\276\272\035\252\276\236\223\305=\362\002\000=\377eN>F\227\001>\025pg\272\036\246\302=\013;,?\206zW?\363\212[\276U\351\351\275\216\233=\274\017\024^\276\231Ab>\273\255\n>p\305l=s\223\222\276\250I\035<\370\034\016<\341\206W=\010\264\006\276\266\363\377\276Pv\027\276\270t\004?2\370\305>\300]\351\275\017\005\013>h\3002\276l\006\347>\323X\213\276\355\016\263<t!\242\276\221\0228\276\"\203;\275\227\036\026\276\330.\305=\365\356q\275\241\371Q\276i\321\000\275`\257\316>5W\006?\330=\310>\363\235<=\377\260\355<\002\356\356=M_,\277U\013\031\276\3665\227=)\205\020\275\013\225\232<o\266\013> \312\211>\333\242\246;9\355\340=\030\352\245<;T3\276+\r\246\276\345\005\332\275\002\270\320=\355\317\203=\351\304\256>m\364,\277LwP\274\302\r\016=\236\363\261\276\323C\'=\345\3426>)i\335\276y\342\035\275\034\002v>\331M\346:*\305\340\276\355\234\307\274\311GJ?E\266\204=\0009w9x\351\005\276\235\r\276\276\370\232\346<\345\311\205>X\323\342\275.\005\"\276\206\367\240>\321\366=>\027\006h>j}\265\275\203\240$=g\243\037\276\002\260\221\276\232\267\032=\351v\025>\210\002\212=\0037\230>n\301%\277Mu\030\276\307\272|\276qd^>\223 2<<\260L\276\321\037f>i\027\223\274\"\304\362;3A\222\275\340\354\255\276\023\300\240\276\216\021\372\275\322\242\222=H\317\027\276*\232\267>\324\354\256\276q@\235;E\375J\276\253\2640\276\353\262\200<CN\t\276\314\304\204>\275\242\212\275$@\265\276\260\r\000\276\036\032\013?\255\376\003?\212EH>\334\202\000>\254\021g\276Yx\r?^X0\276y\014\n\276\214\365j\273\240\310\340\276\236@\315\275\316\361\362\275U\017\026\277\204\260\025\276$\244\223\276\000\367\201=m\265d\275\204p*>\356<.?8\010\357\274\234\r\235<u\001\037\276\252F\264\276\236\321\260\275S:\230>K9k\276\311\337Y\275\t\332j=\254]\312>\343S\377=`\315\242=d\303\315<7vK=\331\266\261\276\214\356 \276\324\271\233>b\033\230\276\231\256\325>L/F\276\276\374\306\275\215\310\232\276\244\177\240\276\316\254\201\276h\003:\276\275\000\334=\3502.\276\310\273\214\276\326\032\276\273\327\207\216>\240\216\021?l\373w\275\264j\022>\217\267\225\276\250\354\026?\272\354T\276\004\037\265\275\252\376\324\275\372\273T\276/G\312\274\303\022?\275\336\311\323=N\264\327\275\333jA\2766\316|:\034\340\022?L\001\037?G\031\341>\236\311\214=\327t\256={\327\031\276W\210\322\276EDa\276\370\237\200=h\363X\275%/\334<t\246\211\275\237A+?\237R\204\275us\276=iyB<\2543b=\035\335\262\276\237lL\276\223\351\362=\013\362\t\276\241G\026\276\237\367\256\276\237\252\"\276\352<\264\276C\226\276\275\035\312\n\275M\231\226=k\202P>y\235\202\276\234\327\230\276\207.V\276w\215 >\241\264\223>5b\213>\tYh\274yS\362;\002U\276\275\233\351\262\274\201wR\275G0\221>@\035\266\276s\256\336\273\315PR= \231\036\276\262\222$\276\350^\233\2754\312\223<\257\261*>M\251g=f\312\025?\273\204d=\224\371\201=\247\315\211\274Z\034\354\276\267$\264\275\376U\236>j\354e\276X\217>\275\271\323k>\303S\202></B>bd\023>:\267S<\250,\344<r\220\201\276\273\315\331\275\207\031A=\267A\316\276o\361\345>\306l\177\276\376:y\275u\353\340\275\357Y\250\276\322\373\027\275E\205\n\275x0\257=\207\311\357\275i>\027\275\277f\267=\357i\363>\346\275F?C\217o\272\360\377\215\273\326\036\245=\204\253\210=\270\205v<2\255\005\275\262\020\252\275r\273\237>S\220\204\275\336>\000>\342\201Q=\313t\215\275\307\022\323\275\021\215;\276JS\001?\254\313\247>\235C\343\275\323KK>\264\305\225\276\373\250\010?\034\001s\276\372QP\275n\336q\276\203M,\276\331\261L\276\330\362\274\275\331\276~=6\342\t\276\020sM\276U\274\013=\300\005\247>\3355#?\035\203\324>i\305\243<\342\212\301=\320o\276;\337R\313\276\036\2776\276\333C7>\346\301\335\275\327%\317=6\214Q=7\343\311>\364Y\t=\351\321 >u7\033<!\317\215<\251\333\242\276v+\366=\337\212\t=\275\206\014>@\016\006>;\000\256\276\347\216\377\273\220\205\215=\375\206Z\276Q\001\242=\267\013\002>\242\220\033>\276vY\274@\266\246>ziB\275\240\t\177\276\247P\375\274J\264G?\014\310\322\274\347\355A\275\365\'^\276|gD\276\213H)>\005\224\261>\273\230\222\276\203\210\300\275\220b\376=:-\260>f\312\240>\357j3\275J\027\305<X\321\242=\371P\234\276{\210\352\275\233\326\007>b[\005\274\330\036\270>J\367\r\277\311\310\016\276V\335\306\276\375C\325=B\037\207\275\204\214V\276\367?V>5A\347\274e\035\252=l\237\002=\355\216\364\276\354\346Q\276\254\203\257\275\262\\/>x&\202\276\n2\016?\311\371>\276\336\371\242\275\244\363\206\276J\252K\276>\246\336\275c\350\242\275v\375D>\232*\337\275aqs\276\336:\013\276EC\343>SP\017?\211\251g>;\254\200>\223\344\354\275\242\3427?\022\344\307\273\310\273@\276H\3420>\314C\026\277J\340\221\275\343\206\227\275\341h\242\276L\035\373\2757\351H\276K\006\343=r\301\204\276;\355.>\214\373*?m*\244\273\346\321\310:Q\222\334\274L?\324\276\201\354\031\275\334\036\223>\'Da\276\262\t\230\275O4\322=\177=\244>\022\316\314=\021\243\326<\225\345~=%\231\003\272\204\'\272\276\303\032\035\276\037\035w>\262\241\200\276i\223\265>}\271~\276f\277\335\274\263\351\272\276\"gW\2763\251t\276{\3114\276\243)=\275N\024\367\275i\356\234\276%\272K\274\\3l> &\013?q\374\014\276$\254\320=k\324\201\276]\033\347>\353\326}\276D\\e\275\004\026J\276\247?\'\276\323\020\027=\323\214\220\275\374w\361=\0064\033=\330\320*\276\037_\004<\265\237\023?P\344(?\010[\376>/\366\245=\\ x=\235\230\022\275\215!\304\276G\315d\276R\223\022>\344G\350\274\2373\242\274\252]\213\275\376\205\'?\266\350\031\275\347\232\002>\260M\021<\000\025_=\023M\231\276s\003q\276\334O\315=\266e\007\276\177%g\276\235s\347\276}\007\333\275\206\266\237\276\224\036\021\276\331\242+=\365\312w=&a\306=m\3719\276\024\212\302\276\3170:\276\302\375\276:\335\022W>\316\230i>E\341\302\272D(\267\274\245\361\007\276\233\271y\275c\372=\272>\232\223>\204\207\351\276O\n\225<I\245\"=\316-\202\275\347\037\272\275\327\273\311\275\035\3472=\326\342\024>\252Q\214=\037!\033?\371H\177=\314\'\005=Q\240\352=AR\350\276\227I\206<\242 \232>\032H\\\276J\010\020\274\226hN>{HK>\022\0021>0\261&=\347\t\005\273\313\221\377<2\266\202\276\270\357\336\275.f2\272P\251\277\276\235\301\252>J\306t\276!1(<\334\3107\2761k\250\276%{5=\223\202\225\274\240\365T>\000\320M<\251\353*\275=W\322=yw\033?\230\333T?\027\333\307\275\340/\314\273(\330M=T\213\014\2764\274y\272\372\014\357<\323\200\320\275=U\261>w\345\222\274E\317\230=\321\003l>t\362\'<\027\273\255\276\332h/\276)\227\037?\r>J>\313Z\r\276\212\231b>\214\212s\276\262;\017?\211\363~\276\213\000\004=D\364\242\276\322\256\034\276\324\251\021\276g\213.\276\250\315\200=\302\276l\275\241\302\202\276\315\245P=\220\352\242>L\034\007?U\245\311>\277\352r\274;H\031=\022\215\217=|\313\001\277`B\302\275\346\006G>\344k\336\275\326p\214=\2619\357<L\213\236>g\3721=<.\240=H\260L\273\364\3242\275\031Z\245\276\3537\023>7\233F=d\350\260=\353\025a>I\241\023\277I\366\021=\\\367\007>\355M\225\276?\014\304=\350\223\337=gO\303\274t \246;h\010A>N\222`\275\367*\220\276\350,\"\275B\332=?\240\177\017=\226\225\320\275\241\213\320\275\3501\225\276\004\333\002>\267\311\257>t\371\277\276\010\\\365\275=}B>\330z\214>\340\277\224>\022\316\356\273\007\200\270=\257\022\253\275\357w\311\276\016\023\272\275\225\0349>\036\204F=!\006\366>A\022\371\276%X*\276\251\235\320\276P\037\234<\306@\275\275\376\222-\276\333n\'>\233\331\237<WD\355<\212\003\233=H&\320\276\023\372x\276\345j\330\275\260\273&>k\253,\276o\366\351>\375u\205\276y\243\005\275\035\201\233\276\220\332\021\276\341\2472\275A)\013\2766[\032>\003P\242\274\013\036\241\276kc\310\275\252#\331>\351\014\375>\312.a>$\353\027>\006\201\260\275u\026\014?X\316\335\273\271\030\274\275T\234\375==d\275\276\035\233\004\276\377\305\237\275\214\276\232\276K,\351\275\345\023\010\276-\261\267;\345\264\203=\224T<>M>-?\222\357<=\270\355\274\274^$\230=\242\216\307\276C\036\003;\303id>\356\217l\276\037\271/\275\263\350\356=\265n\214>\322)\314=\263\r\305;\370\234\223=%\256\242\275|\262\317\276\013\":\276\245&J>\204(\216\276\315E\205>\241?\234\276z\240\r\275\025\324\277\276\244RA\276L\016 \276K\231\000\276\210\210+=Ti\005\276\343o\262\276\001\354\232=S\037c>\271\264\013?\345\360\002\276\327\374\375<+\245\212\276\373L\267>\215;S\276\253J\221<\272\212^\276V/+\276k\316\204=\265\261]\275\021\036&>\020\305\\=Z>\303\275_P\212<\204\246%?\324\2755?\304\343\373>\305\327\220=\365m1=\325\326\r>\236\346\217\276*\274G\276\313\336\344=\347\027\274\2749W\237\274\023!P\275\034\302\023?\266ti\273\374\247\006>\022\273\240<h\016Q;)\330\253\276\022\377G\276F\n\336=V@\214\275M\267\224\276\213;\322\276\377\271y\275\324\220\232\276\006H\243\275\001\331\t=\301\277\210=\303i\200\275\333\226\022\276\"\263\256\276\240D\030\276#6y=\010\230X>\200\204`>vC\305<\320\215\262\275d`\n\276@(\030\276\005\'g<\340]\210>\267\237\374\276\240\346\017=\226W\277=\3530Y\275\004\251\260\275;\335\361\275\n\226\241<e\367!>S\207\217;8,\035?w\323\224=\332\205\235\274\016\272`>\240\361\345\276\217Ee=\236T\216>+\264@\276\227G\250<\307\013K>\255\212R>\004\247)>\034\374\025=\252cA<\234\201\260\275$\226\223\276\020\336\022\276\024\2221\275\333\220\235\276\030\272v>W\022*\276\235\323\322<\300\313M\276h\314\307\276\241\345\232=Y\3465=`A\241>\231;\325=f\n&\275vN\024>z\324\021?\321\023`?\010\244\213\275\216\214^\275_^\332;\014B<\276\265|@\275f\"\243=z#\235\275\324\333\236>\0350\036<\377O\343=\001\244Q=32T=\244L\251\276\234\003*\276\017&\013?Re\205>\317O\346\275\213\245#>\r\227}\276R)\364>\227\341\216\276:\255N=\334E\256\276\035\237\357\275\216\023\333\275\276\272\025\276Z\241\371=\tt\211\275\350\366x\276\233\311l=\213B\235>:\237\017?\321X\317>i_G=\306+o\274l\337]>\247\213#\277\"\233q\275b\004\017>H\244\247\275\222\222\000=\370@\320=\342\034\266>1%\244=\027\n\371=\307\327\365\273\274/\312\275X\206\245\276\324^\230=\367F\304=2\267\242=N\303\201>\227\345@\277\001F\003=P\362\316=\210sF\276\356Z\200=\321m7>\013J2\275lY\276=\356\373\021>\341`+\275\215\004\246\276w\206\320\275\303\305A?a\261t=\377\003S\275\252\004d<TQ\253\276\362>\341=\010\323\216>*\267\225\276\336\350\357\275\220KF>\363\344G>)h\212>\224/=\275\337\2049=l\325\270\275\304\345\256\2763\343\261\275\213\303\">C\327/=\357\030\006?\317\007\374\276\243\232\024\276\341\246\307\276\216k\033>B\252\252\275%\267\271\275s\365Q>\367\2126=\360@\036>j\001\233=\364A\322\276\241\320\237\276\345\324\014\276\342\331\267=i\2108\2761{\312>J\341\246\276mr\334<M\244\225\276\026\361\360\275\210\366\032\275\343\346\r\276\300\312\022>\313\201+\275A\300\222\276b\r\264\275\202\236\372>&\312\010?"
      }
    }
  }
}
node {
  name: "conv2d_2/bias"
  op: "Const"
  attr {
    key: "dtype"
    value {
      type: DT_FLOAT
    }
  }
  attr {
    key: "value"
    value {
      tensor {
        dtype: DT_FLOAT
        tensor_shape {
          dim {
            size: 16
          }
        }
        tensor_content: "l\272\3429\204n\3338U\3337\272j\263\355\2734|\2218\307Pu8t\1770\272\2011\215\272,\327\230;\327\361D:\026O\230\270\262\026\017\273|+\2308\335\024\027\271\254}\243\270\"\245d\270"
      }
    }
  }
}
node {
  name: "conv2d_2/convolution/ReadVariableOp"
  op: "Identity"
  input: "conv2d_2/kernel"
  attr {
    key: "T"
    value {
      type: DT_FLOAT
    }
  }
}
node {
  name: "conv2d_2/convolution"
  op: "Conv2D"
  input: "activation_1/Relu"
  input: "conv2d_2/convolution/ReadVariableOp"
  attr {
    key: "T"
    value {
      type: DT_FLOAT
    }
  }
  attr {
    key: "data_format"
    value {
      s: "NHWC"
    }
  }
  attr {
    key: "dilations"
    value {
      list {
        i: 1
        i: 1
        i: 1
        i: 1
      }
    }
  }
  attr {
    key: "padding"
    value {
      s: "SAME"
    }
  }
  attr {
    key: "strides"
    value {
      list {
        i: 1
        i: 1
        i: 1
        i: 1
      }
    }
  }
  attr {
    key: "use_cudnn_on_gpu"
    value {
      b: true
    }
  }
}
node {
  name: "conv2d_2/BiasAdd/ReadVariableOp"
  op: "Identity"
  input: "conv2d_2/bias"
  attr {
    key: "T"
    value {
      type: DT_FLOAT
    }
  }
}
node {
  name: "conv2d_2/BiasAdd"
  op: "BiasAdd"
  input: "conv2d_2/convolution"
  input: "conv2d_2/BiasAdd/ReadVariableOp"
  attr {
    key: "T"
    value {
      type: DT_FLOAT
    }
  }
  attr {
    key: "data_format"
    value {
      s: "NHWC"
    }
  }
}
node {
  name: "batch_normalization_2/gamma"
  op: "Const"
  attr {
    key: "dtype"
    value {
      type: DT_FLOAT
    }
  }
  attr {
    key: "value"
    value {
      tensor {
        dtype: DT_FLOAT
        tensor_shape {
          dim {
            size: 16
          }
        }
        tensor_content: "=\364f@\035\016\313?\241 O?\353r\\\300\352\323\327>\303\361H@\201x\004@\033\021\032@\3150\302>\245\301\355?>\2369\300\252\230\277?\375Q\263>\t,\262\276\275{??h;=@"
      }
    }
  }
}
node {
  name: "batch_normalization_2/beta"
  op: "Const"
  attr {
    key: "dtype"
    value {
      type: DT_FLOAT
    }
  }
  attr {
    key: "value"
    value {
      tensor {
        dtype: DT_FLOAT
        tensor_shape {
          dim {
            size: 16
          }
        }
        tensor_content: "d\241\363>\301\264\022\300\254\215\207?X-\253\277Q\230\224?\026Y\212?\217\022\212\277A\031^@L\322\"@\231\274\246?\004\213B>\214P\003@\341\2019\300<q]\277+T\346\277\237\344\342?"
      }
    }
  }
}
node {
  name: "batch_normalization_2/moving_mean"
  op: "Const"
  attr {
    key: "dtype"
    value {
      type: DT_FLOAT
    }
  }
  attr {
    key: "value"
    value {
      tensor {
        dtype: DT_FLOAT
        tensor_shape {
          dim {
            size: 16
          }
        }
        tensor_content: "\032\325\237\276\033S\242A\020\265\225\301\212\347\037Bm\306\375\301i\374\340\300\021\356\257\301\027\n\364\301D\364T\301\311UP\301\032\214\016@\254\3620\301UD\310\301\355\333\221\300\264\345\251ADW\033B"
      }
    }
  }
}
node {
  name: "batch_normalization_2/moving_variance"
  op: "Const"
  attr {
    key: "dtype"
    value {
      type: DT_FLOAT
    }
  }
  attr {
    key: "value"
    value {
      tensor {
        dtype: DT_FLOAT
        tensor_shape {
          dim {
            size: 16
          }
        }
        tensor_content: "`yYC\006\233\356Ci\035\360C\306\205\tE\242\211DD\231\255\226AM\3567D\222\327\215D80BC\322\240nC\315\r\005C^\322&C\334\210KDvk\361AI\033\005D_h%E"
      }
    }
  }
}
node {
  name: "batch_normalization_2/ReadVariableOp"
  op: "Identity"
  input: "batch_normalization_2/gamma"
  attr {
    key: "T"
    value {
      type: DT_FLOAT
    }
  }
}
node {
  name: "batch_normalization_2/ReadVariableOp_1"
  op: "Identity"
  input: "batch_normalization_2/beta"
  attr {
    key: "T"
    value {
      type: DT_FLOAT
    }
  }
}
node {
  name: "batch_normalization_2/Const_4"
  op: "Const"
  attr {
    key: "dtype"
    value {
      type: DT_FLOAT
    }
  }
  attr {
    key: "value"
    value {
      tensor {
        dtype: DT_FLOAT
        tensor_shape {
          dim {
          }
        }
      }
    }
  }
}
node {
  name: "batch_normalization_2/Const_5"
  op: "Const"
  attr {
    key: "dtype"
    value {
      type: DT_FLOAT
    }
  }
  attr {
    key: "value"
    value {
      tensor {
        dtype: DT_FLOAT
        tensor_shape {
          dim {
          }
        }
      }
    }
  }
}
node {
  name: "batch_normalization_2/FusedBatchNorm"
  op: "FusedBatchNorm"
  input: "conv2d_2/BiasAdd"
  input: "batch_normalization_2/ReadVariableOp"
  input: "batch_normalization_2/ReadVariableOp_1"
  input: "batch_normalization_2/Const_4"
  input: "batch_normalization_2/Const_5"
  attr {
    key: "T"
    value {
      type: DT_FLOAT
    }
  }
  attr {
    key: "data_format"
    value {
      s: "NHWC"
    }
  }
  attr {
    key: "epsilon"
    value {
      f: 0.001
    }
  }
  attr {
    key: "is_training"
    value {
      b: true
    }
  }
}
node {
  name: "batch_normalization_2/cond/pred_id"
  op: "Identity"
  input: "batch_normalization_1/keras_learning_phase"
  attr {
    key: "T"
    value {
      type: DT_BOOL
    }
  }
}
node {
  name: "batch_normalization_2/cond/Switch_1"
  op: "Switch"
  input: "batch_normalization_2/FusedBatchNorm"
  input: "batch_normalization_2/cond/pred_id"
  attr {
    key: "T"
    value {
      type: DT_FLOAT
    }
  }
  attr {
    key: "_class"
    value {
      list {
        s: "loc:@batch_normalization_2/FusedBatchNorm"
      }
    }
  }
}
node {
  name: "batch_normalization_2/cond/ReadVariableOp"
  op: "ReadVariableOp"
  input: "batch_normalization_2/cond/ReadVariableOp/Switch"
  attr {
    key: "dtype"
    value {
      type: DT_FLOAT
    }
  }
}
node {
  name: "batch_normalization_2/cond/ReadVariableOp/Switch"
  op: "Switch"
  input: "batch_normalization_2/gamma"
  input: "batch_normalization_2/cond/pred_id"
  attr {
    key: "T"
    value {
      type: DT_RESOURCE
    }
  }
  attr {
    key: "_class"
    value {
      list {
        s: "loc:@batch_normalization_2/gamma"
      }
    }
  }
}
node {
  name: "batch_normalization_2/cond/ReadVariableOp_1"
  op: "ReadVariableOp"
  input: "batch_normalization_2/cond/ReadVariableOp_1/Switch"
  attr {
    key: "dtype"
    value {
      type: DT_FLOAT
    }
  }
}
node {
  name: "batch_normalization_2/cond/ReadVariableOp_1/Switch"
  op: "Switch"
  input: "batch_normalization_2/beta"
  input: "batch_normalization_2/cond/pred_id"
  attr {
    key: "T"
    value {
      type: DT_RESOURCE
    }
  }
  attr {
    key: "_class"
    value {
      list {
        s: "loc:@batch_normalization_2/beta"
      }
    }
  }
}
node {
  name: "batch_normalization_2/cond/FusedBatchNorm/ReadVariableOp"
  op: "ReadVariableOp"
  input: "batch_normalization_2/cond/FusedBatchNorm/ReadVariableOp/Switch"
  attr {
    key: "dtype"
    value {
      type: DT_FLOAT
    }
  }
}
node {
  name: "batch_normalization_2/cond/FusedBatchNorm/ReadVariableOp/Switch"
  op: "Switch"
  input: "batch_normalization_2/moving_mean"
  input: "batch_normalization_2/cond/pred_id"
  attr {
    key: "T"
    value {
      type: DT_RESOURCE
    }
  }
  attr {
    key: "_class"
    value {
      list {
        s: "loc:@batch_normalization_2/moving_mean"
      }
    }
  }
}
node {
  name: "batch_normalization_2/cond/FusedBatchNorm/ReadVariableOp_1"
  op: "ReadVariableOp"
  input: "batch_normalization_2/cond/FusedBatchNorm/ReadVariableOp_1/Switch"
  attr {
    key: "dtype"
    value {
      type: DT_FLOAT
    }
  }
}
node {
  name: "batch_normalization_2/cond/FusedBatchNorm/ReadVariableOp_1/Switch"
  op: "Switch"
  input: "batch_normalization_2/moving_variance"
  input: "batch_normalization_2/cond/pred_id"
  attr {
    key: "T"
    value {
      type: DT_RESOURCE
    }
  }
  attr {
    key: "_class"
    value {
      list {
        s: "loc:@batch_normalization_2/moving_variance"
      }
    }
  }
}
node {
  name: "batch_normalization_2/cond/FusedBatchNorm"
  op: "FusedBatchNorm"
  input: "batch_normalization_2/cond/FusedBatchNorm/Switch"
  input: "batch_normalization_2/cond/ReadVariableOp"
  input: "batch_normalization_2/cond/ReadVariableOp_1"
  input: "batch_normalization_2/cond/FusedBatchNorm/ReadVariableOp"
  input: "batch_normalization_2/cond/FusedBatchNorm/ReadVariableOp_1"
  attr {
    key: "T"
    value {
      type: DT_FLOAT
    }
  }
  attr {
    key: "data_format"
    value {
      s: "NHWC"
    }
  }
  attr {
    key: "epsilon"
    value {
      f: 0.001
    }
  }
  attr {
    key: "is_training"
    value {
      b: false
    }
  }
}
node {
  name: "batch_normalization_2/cond/FusedBatchNorm/Switch"
  op: "Switch"
  input: "conv2d_2/BiasAdd"
  input: "batch_normalization_2/cond/pred_id"
  attr {
    key: "T"
    value {
      type: DT_FLOAT
    }
  }
  attr {
    key: "_class"
    value {
      list {
        s: "loc:@conv2d_2/BiasAdd"
      }
    }
  }
}
node {
  name: "batch_normalization_2/cond/Merge"
  op: "Merge"
  input: "batch_normalization_2/cond/FusedBatchNorm"
  input: "batch_normalization_2/cond/Switch_1:1"
  attr {
    key: "N"
    value {
      i: 2
    }
  }
  attr {
    key: "T"
    value {
      type: DT_FLOAT
    }
  }
}
node {
  name: "activation_2/Relu"
  op: "Relu"
  input: "batch_normalization_2/cond/Merge"
  attr {
    key: "T"
    value {
      type: DT_FLOAT
    }
  }
}
node {
  name: "max_pooling2d_1/MaxPool"
  op: "MaxPool"
  input: "activation_2/Relu"
  attr {
    key: "T"
    value {
      type: DT_FLOAT
    }
  }
  attr {
    key: "data_format"
    value {
      s: "NHWC"
    }
  }
  attr {
    key: "ksize"
    value {
      list {
        i: 1
        i: 3
        i: 3
        i: 1
      }
    }
  }
  attr {
    key: "padding"
    value {
      s: "VALID"
    }
  }
  attr {
    key: "strides"
    value {
      list {
        i: 1
        i: 3
        i: 3
        i: 1
      }
    }
  }
}
node {
  name: "conv2d_3/kernel"
  op: "Const"
  attr {
    key: "dtype"
    value {
      type: DT_FLOAT
    }
  }
  attr {
    key: "value"
    value {
      tensor {
        dtype: DT_FLOAT
        tensor_shape {
          dim {
            size: 3
          }
          dim {
            size: 3
          }
          dim {
            size: 16
          }
          dim {
            size: 32
          }
        }
        tensor_content: "\311-\261\274\357\013\235\275\022\3621\275\322(\241\275L\373\002>\334\375\257\274g\314\232\273\264?\277\275k\331#=\005~N\275\204\034o\274\224\342\312<\275v\027\276\253o+>\212\014\271\275\003\016\203\275\205C\025>K.\202\274\344W{\276\354\300L\276\337S\231\274\250A#\274\213P-=K|\002\275\003&d>*\307b\275:X\363=-5\204\275\326\177\200\276S\211\226\274\277\020\210;\306R\216>\343\306P\276\372p\343<\213\227\324\275\003s\210=>\256\315\275YT9>_8\330;\225\027~\274\272\002E=\371+R>\221\351E>#\212\211\275X\2320\276X\207\207\275\335?Q\273\257\351\246\274\311\212\017\275\3726\216=F\003\024>\210\"m>\267\355\265=lm\214<s\312\362\275\226\235\017>\313\367\251\276\352\344\254\274\n\032\251\275U\330\347\275\305?M>\r\356\227\275\037\222v\276\263\211\207<\322\362\025>Y\"\322=\326\337i=\220\347\235\275\216*\224\275\037\376c\275\264\020\200\274\021Gg=\305\036%=\277\322\204\276\351\342\374\274\216\020\030\276\326\316A<\340\036:<\353.\023>\276\373\220=R\235\212=\270\374 \276\032\001\004\275\263\032\341\275\346rm\2757>u=\366^ \2757\372\300>8\t#>f\347\251=\275\032A<\nB\243=\004\302\266\275\003Gc>x\227\314<=\237\310;\235\313M\276p\233\263\274\214\250\002=\224\3403\275\374I\242=)\332~>0Y\020\276\201\201\223\275\2702\360\274\325\232\357=\354\327\317<\357K\216;q}\306=\365\005\366<\304\325F\275\323\034K\276\367\273N\276-K\266\274\210\346\264\273:\210i>{\033\340<N\250\210\275\351\260n\276\333N2=\377\361\243\276\343\352\017>\002}%\275X\302\024\276~\351\263\275\252$\224\276\342w\001\276$\031&\275N\324\370\274\007\257\215=\273\266\033\274!\006\257\274\310\232\312\274\215CO\276)\030\255\275\000l\210\276\261s\007>\301\344\303=\007\263\327=i\243\322=\360\246\270\276\224w\320=m\217a\276|\031\215\275\025Z\275\276;Et\274E\274+\276&\024\245\276\331\032o;FR\300=\216\276\006\276\207<\'\276\216@\213>\252\036\002\276w\211\217\274%\022\003\276j\037k\276\014\030W>GF\001=\333\326(\274\235\354\201=\204\026\007>\310,j\274\234\201\210\275I\315\\\275\340A\010\2764;\000\274p\037_\276^\273\375\274\366\354z=\373Z\016=\364n\024>x7y\276UD(>\366\360\236\276\3731\360\275\203*@\275B\021\264\275\323\031A\276oR\033\276\014L\351\275y\243\362=\363r\321;\240\214\023\276U?\272>\305\227\226\275&I\235\274O\354/\275Qn\305\276\\2\022>\376\034\364\275\372 j\274\013d\006>9}\200\2763F\033>\273\202\300;\217\237\371<\220o.\276*8F>\351P\021>\373\2202<\220\266\346\275\324\0234=\030\315J>\200\266\023=\226\362\254=\007\271\366=:p@\274\002Q\013>\346U\242\276\345}\261\2738\310\244\274\322/\314\274_\261\212\2754\005I>\327\016}>\356\272\226>\315\264\215\276V\365\246\275\360\232\336<>_`\276\207\003\255\2753\032e>vP\204\275\n\305N=\337b\225\274\177\3250>\226\313\236\275\026\t\036\273\263\327\'>V\313r\276\363\215\224\275\277\331\327\275m\332u\276>y8=#S\234\275\231\344i\276~\225\252<\335~\002>\024\240\353<A\234\304\276\367\230\257\274\335\272b\276\031\002\250\276\332\021\360\275{\362\023>\213z4\276\315;\t>\310\363\225>\327xY>\'\332\332=.)*\276\"\223W\275#\3770>=t\207>\177\331\364=\262\315\255=2\366\002\275\317 \224>\375\362*\275\311\032`=*!\300=\017\243\211\275\310\225\331=\365i\246=%\315j\276\353X\214\272j\305\275\275Hk\215\275\021\203+;\274-\233>\302\324\n>\223\247\313\276g\344\374\275\341\211\213\2751\376\303\275Y.\352\275oj\204=N\010r\275\256\321D>A9g>\205\350%>F8\212\275\277\273[=B\213\256\274C\256\362=\003*\272>\317\207\251\274\266\337A>\364m\223\275\273\251+\275\250\314\256=\332\257\230\275\231\253N\275\324\344\336=\221a[\276\266\323.\275\2569\226=\247)\345=\265\371\036>\014<\345\275({\315=\002\361m\276\304\357\303\275w\255\221>\357)\301;vd\014=\215\360\004\276\245?\212;\362\260\353\274\203@\215\275y\310\035\275K\276\202>\353\003\037=#\355\024\275\264H\331\275\000\310\202\276\036\264v=\347:+\275d\222%=@\236\304>+\302\337;\013\350\200=(Xe>\337\307\301\275L\030\014=k\250n\275VC\236\276\225u\266;\336\232\200\274\315\036\211=S\0262>8\2047=\241`\301=\037-F=/1\231\276w\232\224\2769\370c\276\337h\203\276\266\314S\276\337\360\"\276\233\0027\275\2509F>\"\214\002<\2649\276>\013|#\276\353U3<\313b\315\275\374=\314\276\340\211\243>\351\242w\274z\343\276\275\n\202:>l\252\210=\260\377\016\272\324\272\336;sL\337;V\n\020\273C\363\002<\360Um=\313\3552\276\267\327o<\345\250\315;\3132\'\276\233\t\226\276\t\030\342=\242d\210<6\256\245=\254\221\001=\347iB\276\270\021\004<\264T\237\275T\253\240<p\250\257=p@\212>4\221\355>\264\t\220>\266\242\030\276\256Y+>\227\363\"=H\347\220\275X\366D>\025\253\270\275\205Q\261\275\362\275<>J\306\242\275\230\272\227=\356\246\225=\310\302\250=\273\272\351=\332<\301=\371dQ=PL\032\276\372E\204\275\213\177#>\333?\204>\317\301C\276\021\351\220=\"\376\010>%\243\232<\250\375<=\305y,\276d\304B\275\256by\276n2\354<?>u=\324\306V>x\362\217>*\270\220>\234_.\275\320\235O=\221[\230\275\357> \275\305gx\275%\'Y>38\240=!\344\243\275\320\237\221=d\236 \276#%\312=~\303\262\274\253\353,\275g\376f\275Y\352\347\275Oj\214=\376\231\345=\205?\353\272\261\303\031\276\177\037\027\274\312\223\266\275l;\220=\301d \275He7\276\325\313\003\275\361K\277<\270\006v>Zp\251<\013\212\356\274O\236\t\276\n\251w\272\237`M\276\216\266\342\274\374\202\337\274H\271\212;]M\230>m!c=\262K\347\275%+\237\275@b\033\276\t<\212\274\220\201+\273B\332\r>\263\016\032=\272s\036=`S\230\275\231\371\213\274K\224\271=K\316\\>\177\324\302\275EyZ\275F\004\022=Ko\307\275G\260)>p\347h=tv7\276e\312\332\275\035\024)=\331_\334>\374\243\313\274vt\001\275\003\n\341\275\202\207\n\276\356<X\276x@\231\275\211\307\007\276\216\001\301=\364R\336>:\340\023\275\0330z=\260S*\276&\360\031\276\345\010\256\275\311\036\316\275\224\300\247=>8,\275\247\263\336\274~\324%=c\305\255\276&\206\374=@1u>\315{\204\274\257j\223<\n\004\257=\352S\327\275W\226\177\276\367\367\261\275\342\036\251=f\020\237=\273\240\010>\362\330\215>3\325p>/K\016\276\334\354\177\276\311\'Z\276\234\372%\276\216\372H\275\327g\010\276\200$5\275\212[\354<\017k\246\274p\204p\276\314\0340\276\254p\364\275\033\376M=s{)=&\300A\275\377\226N=\300\231\362\275\356w:\275W\272&\275\210\225\220=5\017\233\275\022\274\273=\373\334&=\241\201e<\3118\261=\356RI\276L\023\037\276\333\344\035\274\016\035\374=\372\306\200\276\226\244-\276c$R\275\263U\237;_8w=H\370\003\276\362\342\020>>\233\270;^\233\341=\3726\255:\314bh\276xl\027\2758\365\013\276\3242\236>iH\231\276`\347\021\275\347\024(\276\316\203\227\2758v\004\276\3642\361=\020\037[=E\223\241=\313x\366\274\276;H>K\211z=\220\226\262\275\222\260P\276Va\014\275\231\354\350\273>\257\016\274\210\215\021>w\020\003=Y\2266>\351j\212>\264-\251=\200\362\022>)\370\360\275r\2071>f\365M\276=r\335\275\\\315m\276\013\024\025=\2245\010>\240\204\237<\263\372\207\276\373\373\253\274\323\337b=d\334\">/#\236;\230A0:\324\213\005\276.\231\325\275\2631<<\327Y|<S\\\004>2\007\202\276\033\346\275=^[\320\275\000\202\007\276j\364\r\275\203\036\240=\007\256L\273\242\006%<E\232#\276\2641I;8\005\246\275vB\240<\214\324\347=\2365\266<z\241\257>\0024u=NV\310=\334\020L\275\301Ru=\206\257\237\274\316H\201=\003}\220\275\263\343E<T\273Q\276$\205R\275\\u\340=\003d\306\275e \000=\037(\224>D\312J\276\014\225Y\275\036\244\374\275\273\020D<\263\245I\275\206\377\361<\355\355X=\302\315H=\000\326[\274.\241p\276\201X\024=\356\354S\275\324H\000\275H\377\224>\246\030\304\275.k\007=/\272\232\276q\0015\274\245\006V\276-\263F=\033\263\202\276Y\265\025\275|\336t\276\323\3346\276\255\335\006\276\2646\202:g\002\317\275\276\260I>jK\034<N>\362=\274\360\252\275b\363\216\276\352\247R\275-\213\246\276y\334\315=\023\372O>C\177\201>I\333\224=\271\273\320\275\265|\252=w\255/\276\272,j\274\034\233\255\276\320\313Y=}L\033\276G\003\203\276\350\271\\\276\033\311\270=\301\244#\276\374`p\276\326~\223>Nv\321\275\252\354\377;\222=\006\276\321g\212\276\366f\213\275\352t\220\273x\017\343\275\330\344\332\274\300rA>\372\0359\274\205\244\256\275\376\302\274\275\235\270\004\276\216\200\270=\362\303t\276\211\315<;\213Th=p\247\334=\221S\002>H\204\023\276O\373\212=\222\014\245\276\365\2453\276\367\216\203\275\372\265~<\230\260c\276Be\332\275Q\212\006\274\260\356\311=\306!\'=\003\334\033\276a\307\243>\250\1775\2740\225\000\274\277\313\230\275\205\256\331\276\000\332\010\274Q>\021\276\336R\014=\337\363\002\274\030T\211\276\212r\215=\025\233\311\274\375h\247\275\025FK\276\263\223<>\221\302\306=j\213\217\274\316\327Q\276\332\277\005>\037UN>U\003\231\274\014\010\356</:R<\007\3740=\202\241/>\350\013\335\275\004?\240=\007hK=C\360\274=\265\276y\275\230O\203>\022\317\002>\026M\252>\027&r\276|*\272\275f\307\247\274\241<\323\275@\274u\274x\326\241=y\r0\274\232 \010>\004#*>B\3515=\200\333q\274_\271\026<^\213\'>\317\357\205\276\366\327\336\273ZD\276\273dwY\276\213d#>\03248<;\261\324\276\360\n\034=\"\222\n=\315`\207\275\r\326\210\276\203\306:\274\333Ok\276>g\311\276\270\001V\276\316\277\346=7\000\222\274\0362\226=\237\315\304=P1\206>\017`\275\275b\250\014\276\377\337T\276\304Ya\275\025\342@>%\267\242<\355\350\364=\232\352\232<\\\221Q>a\266\026\275r\245\373\274#\265\034=\\\353\361\274flU<\t\260\037>\341\360[\276\217\023Y=)\002\200\274=\267\036\276\263B\010\276\010^W>\204\037{=\242\201\221\276*\363\001\276\245\307w\274n\275\303\275\207^\024\276\277rY\275\204Q\333\273\356!M>\221\277\363=Uc6>\031O\217\275?2\357<\030\255l<\227\370\024\275\221\350\204>\212\374\007\276\000\213!\2750\202\023\2765_\335\275 eH\274\305HY\275i\004\326\275\343$[>\3078q\276c\035*\275\270\022C=V\335\306=\201?\255=\350\301\222=l\222\261=\204\207z\276\013\307N\275\005\252\210>\301B\303=^U\006=2\032\322\275\357 \327=\316f\014\275\210\327$\275\263c\264\275\3222\244>\320\273\313\273-\276\243\275\217\206\303\275Z#\210\276\266&\326=\036.\026\276O\024q=\321\303\220>\310\344\303=\306\r\336;\375\305V>\010\335\250\275\016\016\037=^\343\r=\243\302\342\276\271\261;\275-2\325:\\[$>\366\345*>\345\t\'>\310\253\313\271\201\034\022<_q\246\275\251\261\230\276\035\342\221\275BJ\243\276%Yj\2759\301/\276m\370\327<K\256R>8@E=\242)\264>\255MD\276\226\034\'\274y`\224\275\024!\347\276\034\241L=\334\263\217<\251K9\276}1v=\022\016\257=\227o\000=\202],<Y\364\223\274\010\274%\276\360\307\n\274+\267Q=_\002\320\275\177^\340\275s\273\224<\233\322B\276\224@M\276\006\205\340=\215\324s\274\323\253\001><\317\255\274\262\212f\276\224\307\267=]\024\212\275\332\273\261\275\312>\033>\263\265\247>\232\342\276>-\214\202>7\003\265\275\252\221!=\037\355z=yXv\274}e\235>\354\2624\276 \361\273\274\312\310L>\301\317\367<\277\335\344=J\0001=\357\212\265=\200n\241;{K\346=\014\350h\273 \2228\276\231\266\266\275\200\237\206>\372\311Z>\224y+\276\362K-\275\345\335\263<,\302e\275\247\255\252\274\006\201\270\274\027P\245\275\236\347\037\276@\005\022\276\210\345\365\272d\2658>\3466;>\263\027M>*j\034=\246\370\247;386<\252Kt\274\025$a\276\347\241%>\261\360\275;z\'+\276G\241\007=\n\3751\276h\323.=\257\017\305\274\030Q\305\275w\270\211\275\020q\340\275R\370$=\333\365\347=\343\341\005\276\263\027\003\276\320\200$\27547\023;\236#\247=$\211\205<\304;\035\275\201[\214\275B!\017>\254\ro>\027\200\240=*\266Q=\"\255\273\275+\245\353<u\231%\275\330H\003\276z\005\334\275p\342\007>\321\263\236>\237\323\352=\233\213\360\275x\263\271\2759\247f\276c\343\'\275\231\265\254\275\311\353K\275\335\304\312\273\231H\303\275\310\201\177\274\014\263\033\274&\021N=\315p*>\244\270:\2766\364\017\275`\215\253<t\364\372\275A5\016>S\254\323=\033l\2059\307\031\007\276zR\017>\230\207\331>\2313/>&\340X=\333\035\005\276\325\201\341\275\346\034\254\275\014.A\276\370Y\205\2762\353\004>]|\315>\337\342\233\274\007o\335\273\'.\034\276\204\035J\276\025?\032\276\266\264*\2764\004G=\225\272\300\275\2143\220\275\227\343p=17\200\276\031X\263<d<x>*y\030\276\201\037f=^\264\216=.\232@=\257\362\214\276\250m\330\273W\303\215>R}D>\177P\212>Z6\264>Eh\206>^y6\273\277{5\276q\'%\276+\345q<Y~\312\275[\301\241\276k\232\014=\232\315P\274\304vj>P#\\\2760\317\004\276Jb\217\275g\353\031=v\201\014=l8G\275\257\000Q<\367\212\357\273\366\367U=\371I\246\275\210&\363=!\033$\275\257g\374=I$\267=k\213\231\275\020\275\025<\021xD\276\275;\341\275\373\337\004\276\230\203\362=\254:\202\276\210\301\000\276x\261\221\274\335c!=B\271\035<&\035\031\275P\366\204=*\016\226=k\177.>\025a\251\274\273\335\202\276\211\032\353\275S\342\"\276Z\325\232>mh\201\2764\2436\275-\352K\276\323G\037\276\251\327\207\275\215\017\010<\377n[=\177\342\362=\334b\235\275\225\231\270=\232\363\203\275\367P\324\275\210\242\346\275[\247[=\3756\370\273\267\366x<\221O\253=\2719V=<H\367=|g\346>\240\347{=\337\231A>\t\0105\276Fx:>p\250\r\276\316\347\036\276b\232\216\276w\347\270=F\3052>\307:\354=\356\245;\276$c\235=%i\362=\036\000\t>\t[\203\275bz\205\274`\250\334\275\257Dj\276&\032\275<1\355Y=j\253\347=\347\275Z\276\313\004\252=\233\243\336\275w\\\255\275^\222~:\313\\r<\264\277\260=K\320\013=\350\276\336\274\304S\000=\0011\200\275\364\265\205\273WX\n>\246~\314<\345R\214>:\365\224=I\203&<%B}\275\002\232\273<\211\237\201=\031\260\014>\032z\030\276\376M\212;\005\035\024\276/p\300;\276]$>_r\252\274\332\307\213\275\342y\235>E\031\000\276c\315\334\272\210W\373\275\337\214q\275\212p\021<je\007>\221\021\177<c\337\331\275F\206f\275S\\[\276\026\252\236=x5\002>r0\025\276\243U\304>\tuU\275\027m\332=\032@\311\276N\036\304\267+[l\275<\004\233=x\027\231\276>\324\025=\336\333\021\276\246\347\001\276\327\305\201=gP\213;kO\035\276\307*Q>6\325~\275\344\370\003>\205\313@\275\235\023\232\276nw\214=\240a\313\276\355f\345=zI^>\325\373\203>\323\251O=T\354\254\274\256F\022\276)\305\026\276?N\"\275\243\245\371\276\0168\247=\017\275Q\276\013\236x\276\307\250\321=\364\355\276=u\327\305\275\027\321:\276\271F\021>\307J\346\275c\235Z\275\'\351\006\276\370\016\304\276h\2068\276\237+\365\275\252\260!\275u\022\025=k\202?>\301\304^\273\201\037\261\274\345t\224\275\2202\342\275~\217\377=0\264\213\276\205\236h<\302~D=q\030\264=\244]\327=b\350\272=\377\351\355\274j\354Q\276\224\232\274\275\314\347\221\2765:\257<1\307\t\276\3300^\275\0203\212<w\021\341=B\021\220<u]\351\275\355\t\217>KZ\236\275\177[\030=3\251\250\275@\030\266\276\310\306\333\275Fm\002\276z\311\203<0\307\207:\370\014)\276\032+N\273 ~C\275\020\365\263\275\\$N\276\346\031R>\212y9=\265\225;=J:J\276+\211\003>t\223\202>\317x\211\275\252\206\001<$\003\'\275M\357\234=\253z~>\030i\013\276\003\354\036=\276\023#>\2279\367=\354\313\204\275^Ac>\301A\">\352W\212>\232\300^\275\362e\317\275\243\305\235;(\326O\276\300\033\264\275\000\345\243=\256\227u\274\214\224}>\276\010\002>\000^\202\275\313\342\321<h\327\234<\225%\204\275\217f\010\2768\233}\276\027^\201\275zm9\275\225?\034>\304\004J=\222*\303\2766\275\000=aE\370=J\263\236\275\270\317\374\276\220\302\036\273\341Y\231\276*\367\266\276\250\244\260\276\003p\237=e&\002\276I\304A=6\227\010=\331\377\036>\264\302\032\276\214\252%\276\035\231R\275\275$\260\275\223\210\331=\334\251\242\275\2578\315=v\030\236<\024/\212<\245\024.\275Y2\372\274\225\016\352\274\350\273\266\274\237\363\331\275\327\271\026>\247)\313\275\276\254H=\324@\226<\010\271\252\276\305\206\276\275\245\354\021>$\354\311=^\247e\276\326\223(\276\370\211\245\274\231v7\276\257@\261\275=-v\275\035o\021\274\375\307\036>\330\237\r>_\002m=\273\354\245\275\323F/\274\260\013h=\333\313e\275\033\302\325=\265\242g\276J\231\260\274M-\253\275\022\325\031\276g\213]\275\021D\231\275\031\314\203\275q\037T>O\246\027\276,\034Z<\273\375\000\275\344e\021>\237\225\227=\004\343a>\036\020\223=\250\204O\276@z\372\274f\372Y>\276\312==\030QO=\252R\004\2753\000\304=\204\236\263\273\024\344!\275\241<\024\276\273Kb>\364\245R\275\367\3252\275+\367\342\274\034\233F\276\000\255x\275\305\333.\276\341N\010=\307\251\243>y\215\364=]\246\356\275T8\341=L,q\275]4t\275\003T\027<\377\034\336\276\263\244\031\275\006\030\311=\377\005\036<<\202\362=\271\0257>D\275\036=\223<\210\273\260\361\023\276\350\324\343\276\336\354\315\275\376n5\276\343\321\233=\301`\244=#8\230=&\007\263>\2250M>\377\222\271>8\023\223\276Jv\246=\276I\312<\333B\266\276\213|X>V\246d=Y\277\220\275\200\025\364=/c\265=d\244c;\304j\332<#\264H\275\215\331X\276\354\257F=\272O\336=\234(\272\274Qz\363\275)\331\371=;\177\251\275c7\027\276\0162\234=\251cd\275\215s\334=\211\216\234\275m\310\t\276E\277_\274\033-\315;\214\227\240<\356J\006>\002k\246>\371\323\252>\220,/>\264G!\275\307\235G\274\355\333\212;\321P\377\2749n\220>\030\263L\276\332\353m\275\312\241->\2252.\275fx\215\275\217=\006=\272sn=\203\265\347<\0341r>\207\316\n\276b\221\023\276L\177\321\274`)H>\235a\216>\240\276D\276\213\\7\276\006\351k\274\271U\355\275[}\322=\342\232\256=\032#\202\274d!\002\276\226\000\370=\327z\304=\177\262->\323WB>\311F\037>jvT\275\\n\347=0z\037\275\345o\232\274\200\306\212\276Q\220\244=D\004\251\272s\r\031\2762\\\364<\331\304\353\275\273\371\312\2759<*=\332{\307\2757\374\204\275\265\267\256<\005\276\211<\256CM\275\217X\003\276\276x|\275\206\322\310\274\303\225z=SH9=N\225Q=\354\330\017=\022&0\275\231\037\342=,\256\232>\034\'F=\353(\210=\234\216\304\275c\013\346\274\332\020\333:\276\361\241\275\227UG\276\356\037(>;\267\215>\342\\E>\346hs\275\0271\021\274Gj\204\276\233\3609\275\2216\322\275\222\321c\276\350N\312=(\t+\276\350M\250\275\353a\027=gE4\274J\307q=\023r\240\276\227d\205<`\314$\274\034\027\001\275vL\323=\307{\002>\004\357\303=\026\273\363\275\033\320\330=\305:\360>%\276\016>/;;=\260\332\n\276\340\376\375\275\026g\235\274\'\315[\276\002\357\251\276.K6>\262\317\256>(\352\367=\216\254\374=qA\216\275R\377\375\275\235T\340\275,\351\014\276\262\020t\274Q\307$\275\016\251\004\275a\002\271\274\253\016\353\275\204\217\025\275\204\016\r\274\306\220\005\276\211)\036>\3204)>k\216&=\335\256k\276\370\256O=\325\347\241>\037\206\027>\230\375\311=\374R\327>%\334\242=\362\264\030;\265bA\276\206\203\251\276\230\360\200;\'\202!\276O\253\254\276\0025\255=<\005\256\275\376\031K>#\023\023\276\200\'\257\275\361\371\334;\222\244\016\275I?J=\311\313\336\275\251<\226\274~T\212=\344z]=0\245\316\275\224\010\033>\215\225`<\003\t\212=\274{\317=\344w\314\275\207\323\363=\363\367\234\275=\263\340\275\'\260\000>\noB\276\326\351\356\275\001\254Y\276\037\n\252=\200%w\275\3326\022>=\304\034\275\331G@>\307\341\212\274LIG>\215\006\301\275\210\317M\276P\0276\275\013\226Y\275T\014\220>V]o\276\3363h=\005\337\025\276VZ)\275!\342\251\275\316|\332<\263_\320:\'s\371\274\017\274v<\363\327\022>\302\334\331=\363f\005\275\252\333R\276\361T\333\275F7\202\274\354\350\n\276\376rT=\245U\210\274*\032\207=vG\217>\311\315\306=\247\276\250=\024=;\276\271\203\253=\265\227\002\276\244<\\\274\3748\306\274-\261\360\274\223v\n>j\336\343\275xY<\276\236V\263\274\221\212t=k\240\007=\027\230\233\274\241\305(\276SB0<\306\014w=\023\rs\273\367K\256=r9\222=\327:\"\276fi\337\274zh\277\275\017\362\022\2743\305\313=7 \324=\304n\274=\306\220F>+\334\272\275U\253\374<\230\024\033\275*|\037\276\023?\005=\262\022\207\273\331J\301>q\247\356<\315y4>\022\203\356<\375\327\230=\203\221\217\275v\242g>\360\n\212\275\340\316\312<\243\310\233\276s\222|<*\302\027=\255\010\r\276\260\035s=|\361\202>`\014\366\275\2559a\276!5]\2759\312D=\201,\010>=\346k=\270\004\256<\260\250\202\275\236Z \275.~\230\276Zc\255\275\266\016\264=\325\240D<\313\307\006>\253UM\275\222\337@\275\207\236\305\276 u\317;\023\223q\276\302\375\224>+\240\227\275z\224A\276\210 :\276\201\022C\276r\246\310\2749N|=}t\321\275*87\275D\234\247\275\264\320h\276\265\352\026\276gA`\276H\224\214=e\006\245\276\356v\265=\356c\365=\003\314\026>1\005\332=,Z\007\276\275b\365\275\347\277\004\276\276\325\247\275\227P\014=\000\344F\276*\230;=\033\320\232\275\022I\227=(\232\203\275\027\267\310\275|\205\\\276P\256\264=?\204\212\276\275\201\243=\022\213\'\276\205\0014\276c\223\034\275\226\007\354;\3659\347\275w3\233\275\225\036\223=\366\256\357\275A\314@\2766d\212\276\t\304\367\275\354?s=\253\353N\276G\272.=wz\321=zJ#>]\277W>\212\316D\275\210\220\250=\223n.\276\002\237\256\275\n0\306>\240sO\276\026\032\242\2758\301\220\275\344&C\274\003\300\212<\317t\222\274\344<F\276\374A\214>\022\226\233\275\316\224\265=\277+=\275\200\272v\276\352\231\010\275\236\2706\276\243\244\005\276\275\305\207=e\237\302\276uj\007>\347J\341=eN\304<\231`,\276\271\311J>Z\365\226=\210\314\027=\236\310\204\274\234\3445<!\2025>f\311w\275\277D\362=\340/\221=\002\216\003>\360\225\200>\203\'\207\276\261\014X=gh\255=4\025T\275y\311\263\275\242\204\234>T^K\274\246\300w>\266@\002\276X{\213\274\235\217\t\275\246\375j\275S{N\275\317,D>\013{\317<\357\2346\274\357\351\t\276cCW>\352\304\254\276\233\022G<\321\314\332=\261\245\336\274\353\304\031\275\351W#=\205\211\354\275\021\204\025>\363\301\356\275\024\254\274=Gh\203\275\304tq>\027\337#\274\346\365\273\275\035!\235\276\323\025\006\276\361\332\255\275\274\021\246\275\0038\301\275\373\207O\276D\022\301=\230Y\223=\233\260\342>>2\255\274c\211\030\276\201\001\254\275Y\212H>\377\264?\274.\010\256\275\210M \274!):\276\254_P>\010\226\007\276xyw=z\260\255<\271\317\312<\253\237\032>nD\005>Ae-\276\013\376\001\276\247\023\254\2756c\361;\271)\322\274\364\306\245>\201\025\203>\031\017X\275\274\272N\276\211%\275\273\025\237\217=\037\201\t\276\326\324\243\275}ZY<\345\235\3019_JX=\325\023\231>pQ:\275\373\354\213={k\276<\035\254\\\275\203\000Y>\364\270!\276\360\r\337=\307\n\250\275\227],\276\204^\326;\254Kr\276\340c\216\275\322[\006>\020gy\276\036=7\273\350\363\330=\356\233\034>\376m\366=\207\376\302;7A\241=y\224\374\275\234\031D\274\022\352\020?J6\240\275ZG==\200\254\006\276\360\370\022>:\202\370;\331\306^\275\n\260\260\275@\241\233><\217\242\275\310\320=\274 \253a\275\315\207M\276\214U\032\275\331<,\275E>\274\274\334\356\027>%\367z\275cV\013\276\305\177\223\275Rn\230\276\005\214\010\276W\241U=\263\357\302\276Kz\022>\357\365\211=}\036\245=J\017;> \035:>x\365\263\275_\270,\274]\346\256\275\316\341\270>jU\315\276XU\005\275\273\033!\275\313\027\032\276\272\177(\276\274T\200>66\251\276vY\366=\032o\307\275U\333P>\317\371\271<\177+7<#\273\014\275z\276\263\275\tIJ\276\371&o=MI\210\274:\035l\275\014\177\315\274\211\245\337\273s\234\212=\222\202\t\274\245\274\370=\267M\272\275\210\315\240=\010T\023\275\310\206\366\275t\222\007\276\010\347\020>J\220\336=HR\026>v\265\226>\000\276S\276J\340N=\267\220g\273E\233\343<M\354\327=\031\022g>*8\326>\\\262\025>\031\326\267\275\203\2635>T\250\207<b\3308\275\307\342\025>\213\203i\275\304a\032\275~\226\254=\256\253\226\276\001_j=|\226\242\275\240\342\235;+\376O\275\210sp>O\222\244<\216\321\244\275\306k\325\275\261+\000>\"[\211>\233\037\225\274)\332\225\275Ax\275=z6J=UT\372\274\357\310\300\276\230\265\254<\206\344\207\275\204\265$\275\231\353\030\275\037\354\036>:W2=\376EK>\346\036\236\275\375Et=3\273>\274-\366\232\274z\254\n\276z\\P>\031\215^\275\200\030\021\276\222 \371=\271M\025\2769\377\224\274>\202\366\274\247\316@\275<\036\245\2756>7\275_f\200=\273c\312=Y\206n\274F\270\312\275\213\024\005<\376.\245\275\340\376\017=8h\317\275\346\323\220\275\016\221\334<K5\263<80\203>\225c\007;\264\315\270=\317ES\2769\214m\274M\022\003\276\275\023\245<\030\310\251=bwy<\340\240\274>\350\033\200=\222\316\370\275KLy\274\262f]\276atE<\'\226\216\274\263[F=\367A\317=c}\204<Z\223\373\275\235<U\273\013\340M=\014.D>\344\373\006\276\373\352\032\275*x\006\274G\276\224\275\001W\272<\206q\235\274\256u\230;\022*\013<\263\005[=\3534\343>\2058\013;\350@M=y\035F\2763c\206\276\277\274\033\276\362e\351\2741\213r\275\206\212\313=\213\210\374>=$\364\274\273=\342=\256g\'\275,\004\024\276\270\230\311\275\307\200q\2763\032\225\273\310\261\226\275\316\340\212\273\376A\356\275\317=\216\276\035\222\317<nek>\236:\200\274\327o\211=#\311\367=I\3003\275W\212\245\276\362r)\276(\307;>\214l\226>\3236\324=)\342/>\037kV>\000\014\317=\276!\177\276\360\357\025\276\250\210\352\275$3s\2758^\353\275\242\330\014\276\360?\237\274X\201\272<c\257\243\275j+\264\275\274\203\226\274\004\033\206=\215\3006<\252r\221\275eX6\275jt\352\274keC<\320\2620\276c\034F>\354\233\211:\276M\376=\232/\035=`\256\266=o\007\374=\356\267#\276f\177=\276\022\033\211=\330\016\231\275\326y6\276\340\256\316\275<\005\006>I8\021\275I\311\004>\001\026C\276Lo\326=*f\213\275\000\323\r>\206D\357<\017\354\361\275v\026\376\275/+\351\275/\230v>\211t\250\276\356$\n=\000\2654\276\353S\371\275\364$\261\275\303\333\220\275\324aN=\266\255L=\214\215{\274mI\304=\311[\"\274\231e\352\274=|^\276O\364\021\275\340\343\322;\034K\347\275\023\235[>\240\003<={D\006>t-\212>j\310K>H\312\026>\233\304M\276\001\246\347=H1\317\274+I\263\275a\243\"\276I\021\231=\320Y\023>\215\031\275<w\275\'\276\343\370\007=\303\262}=R\333\334;W\010\311\2759\313\233\275\231\271\342\275\323A\307\274]\032\375<\026k\001>\303\373\352=Wm\016\276\221\313\262<\004h\332\275\177\217\243\275\317@$:\203\206\232<\237Zd=\005\351\250=;/\037\276w\372\034<\313\261\310<\223\300\353\273\302\371\324=\035M\007=\241\336\232>\346\364\003\275Ol\337=\232\264\033=\254\034\250<\036o\005\275@\320\025>_\207X\276\247\227q=\257\034\251\276U\027\251\274N\302;<1)\004\276\357\343(=\321\r+>\360\205D\276\207\221\270\275\032v\322\275}\315\026\275.D\313=\352\006\214=\344\2323=|\n\"\275-^\313\275zP\223\276\373\017{;s\312\266=AbW\275\221\361S>\323W[\276_\312\321;\374L\007\277\300n(\275\203x4\276j\213\005>\246\305~\276\262\304\262\275RR*\276\377\350\016\275\211\354\330\273u\2670=\353\372`\276\226\267.>\316\001l\276>\022\305\275\373z1\276\312\035\'\276\336\342\213=\020r\263\276\366g\274=$\242\330=hbZ>\207\277\230<\235\014\335\273v\"$\275Xv\033\276/R\000\276\307\375>\275\236\353R\275\305\243\254\275\023}\000\275\260Y\352=\273\262n<\016@\215=fY\251\276]e\341=\266~G\276\007\315\302=\367a\300\275V\277X\275\240<v\276\025r\367<k\216I\2762\342\017\276\000\242T>\262>?\276\277n]\276yD\207\276O5\016\276\335\205\273=C5\200\276-\332L=a\233\233=U-,>\334U\027>o\004\263=\363\260\226=\353|9\276\r\270\031\276o\335\252>\006\223\210\275!\244\300\275|=P\2755G\022>\034$\010=\334.\207=\345sl\276Z[?>\212\265\254\275[\205*>\010\253\277<p\363d\276\356\215Z\276\020q\374\275\223%\273\275\210M\334=N:\234\276\377\013%=\252\335\364<M\"7\275\365\021T\276\351\356F>\316\226\224==\325\262=\023\270\307\275\360Lu= \2719>\353\005\354=9\341Q=59\003\2759\244\333=\346\232g>\3136<\276\n\212\030>\022\322\026>s\261>=\2037\000\276\324\306;>.d\326\275\273\032W>E\301\336\275lI\350\275\003\340\017\275\314\032\365\275@\031\365\275\353;8>\257\302\n\275\200@W=$\037S=\006E\306\275\276\344R\276\036\"\257\275\247\371X=\020\377\n\276\336z,\275L\014\'=\205\342&\276\211\027W>\226\214\304\275\026\212x\276[\351\032\275\223\024\204>\360W\337\275\374 \257<t~\\\276ADv\276c\245\017\276\220\236\033\275wP>=|A@\276\2253L=\276\033\331\275\222\014\211>\361\374\332<\331\233\312\275\215X\210\275x\212\224=\2277\374\274>\033\252\275\202n\341<\247/\n\276\030\264\351=X^z\275\245,\271;\346\"4\275\\\036I=z\356 =\006\310\264=\014\243\367\275K\327\255\275P|\324\274\305\001\034\276\025\242\003\276\261|\251>HQk>\253\305\275\275\007$_\276\337+\245;\245\252y=\314\235\351\275 sS\275>k\241<\303\272\344;t\0230\275Z\264\214>\332RA\274\213\345$=\204Y\240=H\026\235\275\304\332\331=\034Hc\276\317;\342\274\2262q\275\327\206\200\276\336\375\013\275\024\326~\276hP\323\275b\037J>\312g\207\276G\236\032=2\n\244=\002\244\032>\023m\267=\037Q5>\2359\017>N\257\026\276\375\004n\275#\"\370>S\234\016\275\377\241U=\t\222\360\275\2634\373=m\340\252\274\017\303d\275/X\"\276\246oi>^A\003\276ZM\340<\031\016\t\273\017\341c\276\327\244(\276\370\353\345\275\036\037\323\274\251T\275=\220\315&\275;\361\305\276]\207N\275\275V\265\276\324\304\034\276\031^4>\301\375\250\276$)\300=\002\207s=f\025\221=f\314@>\335J\224>\257\217\360\271\243\270\363<\313\331\340\275 K\323>\nV\211\275\030\237\033\273\274\\!>d\331\354=\261\231^<\212\323>>\245|\204\276\0143I>\024I\242\275\241\311u>\350Y\271=\277,:<W\245Z\276\361d\327\275 \230%\2762\341\027\274\273\017\327:Yl\223\272\220\007\353\274\001\316\213\275\220\200\204\275\265\320\255<8\3636>JN$\271\200@\005\275\323\272\254\275\020\200/\276q\026\250\275\n\303\313=\330C2\2749\340;>\301l\204>1,^\276\344#\275=\007V_=\217[\303\274e\326\375=\221\366\200>\350\256\253>L5\331=\0367\250\275\265s}=`\207&=\242+3\275\210#E>\274\tC\276>\240\205\275.\333\377=C\0241\276\370\200\322\275L\002\005\275\357\313\320\275\035\220\204\275\000\234\204>:h\312\275/\201\"\275\222F\023\276;];>\257A\210>\221\006 \276\035R\007\275\347\210\212=\323R;<\347\201\334= \034b\276\343\r\226=7\0300;C\312-=\352\311\235<\376I\033>\356\367\035<e\245\034>\213o\252\275[|\333<\241\311\025=\3768b\274\371\267k\276j\3350>\235\376*\276Yjw\276Mh\256</\327 \276\327?\005\276\224\367\332<\300\264f\276\254\241\316\275\254\341\n=!\021T=\365\030\343=\305\345\254\275jG\361\275\304M\246\275\230A-\272\262Sn\273\230\316\231\275\235\230\213=\244\325\230<\0302\326=i\2179>\204\360\305=\005\246\376=\271\307p\276\202\372\032\275\306\215A\275\\x\330\275:\235\372\274\0078\246=^\325\257>\254\2033>\337\206&\276\363 (\275l\006\212\276)\341\272\275^\003\035\274\242\251\363\275\327\346\177=\351\\\017\276\256\272\353\275K\377\310=[\306\024=\215\315\266=\332\034^\276\232g\004=`\347L\275eu\277\275\250\341\036=\212\003A=lsT>\204?N\275\342!\247=i\'\270>c\254\224=\034T\355=\276\364V\276s\226\216\276\2709\032\275{b\271\275+\200\203\276\226G\335=!\373\325>\335s*=}y\376<&\214\233\274\203\210\033\276gq\005\276e\277x\276\243q\023\276\037\210\240\275\223\342\246\275\344/a\275\376^\013\276\331\251\370\273\021f\360=\235\275J\275A\372\010>H6\025>\354\231[=\207o\232\276W\\2\276\346\372\244>\207\330\206>\244I\237=g\373\326=>\260N>\232\312\351=l\005\241\276\307\234U\276\316\332\272\275.~\240<.\254j\276\364\316Q\275N\3052\276\345]\355=\346\342\205\275##-\276\037J6=MM\254=\000\341\303\275\200\361~\274\351P\337\275\236\257\226=f\212\323=&\2421\276z\277\177>\021\264\251\274\nJ?>`\256\233=u&u<\010\271C\273q\244 \276\342\341?\276\251\007\266\274\371\000\020\275\224\313%\276n\252L\275\231W$>0Z\211<wT\021>\247n\000\276\375\264\210=d^(;\217\030C>M\316*\274\365\242/\276\3445W\276\347\314\363\275\003\266d>\266;\207\276\250;s\274\322\234\t\276\207\235\010\276\220\217\213\275vO\356\275Y~\301<,\201A>*\362\364\274\224T\325\274\204\007\003\276\016Ty\275\313\361\n\276l\232\343=\311\312d\275\206\230\351\273\315\016\301=\003\357O<\344\026\306=\254\312\334>\261\267\360=\203.S>>g\030\276\350o+>\33554=\374Q\016\276\035\311|\2765\211\025>HT\004>\362\333A>\230\t\\\275t\277w=\036<\200=\263\320x<\020\326\023\276k\345\244\275)\314\301\275\004M\262\275d\264*=\016\025\221=\t\206\320=Nk\322\275\2232W=Z\240\351\275j\2349\275\024\177\346=U)\206<M\016\261<F\213\t>\022\363\221\275l\244\0309n3\204:\254l\014\275*s\252=\021\326\036=\306\002\220>\303\031F<|\312\001>\366\347\205<I\373\343\274}\345#\274\343\307*>\232\013\205\276\024K\205\275\360kU\276%\370\016\275\n\362\264\274\"\\\340\274\354e\254\275)\374\017>&\321\222\275\230\363\201\275m\007\034\276\206\005\031\276\264\024\005>jK\266=&~9\275\372\310+\275\205\0208\276\016=Q\276@\244\220\273V\242\035>U\216\230\274\217\241\277>\306mX\276\205\247\372=i\030\017\277\374\222\227=Z0H\276\2367g>\206\242\221\276\021\354*=(i$\276\302\233\204\274\010\313\260<\007\305\244=-\026o\275v\217q>\320\314\211\2760\361\314\274{\'W\276\267\007\202\276t<\361=~4\307\276\304\256\313=[\372\331=\2438.>\206\344\372\274wz\220=\2077\223=DX\336\275j\332\275\275\216E\024=Jim=X\236\000\276\212W\212\275\032W\205>\2237\220=\324\372\331=G\336\263\276\242\220\260=\276\215\222\275\247\026\357=[\366\n\274rZ?\275d\310q\276\355\024[\274!\306\252\275\023\246P\275/\375c>Oqr\276\211c\032\276n.s\276\264%\204\275\310\310%>b\024Z\276\2557-=%+s=\227#\030>B\255\246=\337FV>\033\026\206<\222\021I\276[\364}\275\327\233A>\\#\221\274\004\321\212\275\'\0255\275(\322G>l\227\226=\254\376\000=\217&!\276\337\364\037>s\202\207\275b-I>\276o\241=\214\225f\276\236\213\234\276N\340\\\276f\177\226\275`\r\023>\232\347j\276\321\203\t=W\035)\275\034\243\332\275q8\036\276\314\3438>K\020$=,\363\300<^s\234\275\362\276\341=\275\211\203>\006E]=\"\354\004\275\2139\300\274\n\277\234\274\357E\203>1\202\222\276\302\330\256=![\334=\022\234\236<\001\035V\276W\325\206>\230W\231\275@\034d>\261\221\272\275P\334\341\275\357Qx\275\375\231\275\275\212\265\017\275L\273C>\215\002\007\276\202y\003>\025\0364>%\260\210\276\347\256:\276\256D\003\276\004\275\312\275\376\262j=s\302\220\276\313\245\205\273M\354\262\275M\223v> \322\210\274\000\nc\276\365\246\245=\365\033\242>\212\222\364\275\022\270F=\214\250\261\271\342v\315\276q\t\230\273]\363W\2754\336d=\207b\216\276\242_K>\220`R\275\010\210~>\275y\363\274\260\t\251\275\237\317\027=\367\226\374<{|\265\275P\327\216\276]\300\237=\315\355\216\275.\027\217\275\231\313\021\276\223\341\201\273q\331\276\275-\233\367<\262U\030\275\206/\310=&\241V\275)\373\202\275\360\323a;\235y\213\276\247\034\005\275\267T\202>\020\217L>\221\007\316<\357^a\276\203\315r\274Na\245\275\316\026\331\275U\320\274\275\202\272N;e\021\330\274)\354\323=\261)4>\222\3761\275\273\224k\274\211\265\206=I\232\346\272\327\261\256=\205|\261\276\004\'_=\200\037\214\2759\216b\276:\261e\275\234xt\276\007\317)\275\240\265?>L\341\203\276\347\300\203=\t>O<\244\366\036>\333\336\332=`\241\222>\231Z\213=\252\036s\276P\316\024\275\301V\341>\326\030p\275;\014\216=\231\204\221\275-\016]>g\3217\274\227\226\264\274 y1\276\tK]>Kf\'\276\365\314C=\303\034I=t\361\006\2763B3\276\240\265\005\276\232?\226<(\364\230>~\247\235\275\351F\326\276\246\3075\2762\210\224\276\324\032V\2734U\272=\235\225\227\276\245u3>\220\020F>\212\347\274\275\372\370\206=Y\201\266>p\305\016>k\301\351\275t\216\300\275\307\315\225>\242\023\210\276\325\302\344\274\310\223\365=KI\246>\357\333o<ftY>\361\364\312<\342\000\324=3V\024\276~\243\037>\344&\016>\204\031\275=\256\320S\276\035\316u\275sj\024\276]\335\366=\327\275q=\303\253\242<l=\211\275\376\256\266\275q\022\202\275\363\235\035=\230]8>\357\t\001\273\214\026_\275\353\026\214=?\242\000\276\324C\024\275\277B\013>\377(\306\274\244\316\323=\023Z_>\332\333 \276&\205\372=\262z\325=\362\257\005\275\245\336\366=\264\342\200>mT\221>,.j=\377\200\277\274*\225E=r\013\311\2746\270\323\272\312R\317=\216\001u\276\022\260R\275c\314B>\215D\014\276\3204R\276\362`C\275\274Hy\274\237\252\230<\262F\216>\267\263\004\276qnO\275\347\010z\2757I\020>\342p\262>9d7\276\220\002\210\275\260=\235=\tJM\274G*h>\003^\232\275\2622\215=\334\377V\275\204\004\354=\311\275F=\244\327\202>?\336J\275\373R2=\353\277\332\275\025\225\266\275g\227\207\274\030&\304<\210\224h\276\313\2015>[\265B\276oxz\276\032s\243\274\201\253\375\275@\357,\276\316\203q=\337BF\276\376\374\322\275i\257\t>\237\017\301<4al\274`%\352\2758\022\302\275\037\314\216\275\036\270\277=\321\305\307;q4$\275j\377\007>O\023\022=\003\314\354=\342\324\177>ug\020<\020\231\371=`\331x\276\240\\\007\275\214\014>\275zA\370\275t\236\331\275\362\374\357=\373\253\220>nz\232>R\214v\275\364\346\331\274t\244\223\276\350\230\202\275\250\374\304<\271\266]\276\315\310\372=\240\206w\275\035\310)\276\237M\t>9t?\275\274N\237<9r\226\276\232\265X\275\363\203\246\274\357\010\205\274\261\342\271=s\014\336=\362\325j>\344\035\021\276\307\013b=k\220\335>8r\302=\250Em=r\037r\276O\027=\276\202P\002;\022\250\004\276K\337n\276\370Z\005>\376s\256>\rYa>\223\214\202>\342\\R\275\202\332\032\276_\325\345\273\003\375\325\275.$\250\275\225\373\262\273\2462!=\250\236\200\275\333\322\240\274o\006\246\275\332#\";\252\347\231<\275.\234=9\'\022>5\177[=\373\324\247\276\277\276\277\275\320\021\201>\232\321c>\300\017\221=\366\345\233>\266\267Q\274\237\"\267=\263\232{\276\320<\\\276p\222\357\275\302X\347\275\261Hf\276\345s\333\271\255&\007\276\245)\014>g\353d<\255\235\225\274WZ\355<\333l\244\275$56\275\344\252\030\276~L\251\275\3368_=\344\355\220<\361\314\026\276\t5\201>\334\366\202=5\250\350=o\\F=\203\257\317<\377P\237=\202-/\276\366\356R\273\373,f=\216? \276\313\034\216\274C\325\014\276\030\211$=\253{\016\276\231\313v>G\"\227\275\265\340\036>\322s\204:\024\342\\>\311\204\304\275&\3139\276H\233\350;RN1\2740!\r>\220\307\217\276-\274\016>O\375\033\276^\317+\275\210D\374\274\312t.=7\345O\275k\356+\275\001n3<>\354i=\241\003/>\356\033M=W\030\277\275\312p\236\275\177\256t\274\316\323h\276\365\007;=k\277\224=\313\353\370<dRg>g\374\026>\302#\030>]\350\211\276p0W=\240\033\231\2752\207\352\273\220Gb<y\r\325\273\345\310\r>*\310\"\275y\363\024\276\267\010\256<t\264\352=I\007!\275\t\017\344\274\023\002\362\275w\301\320=\310\362S>J\\\311\274w\377\334=Ud\004=\370\337\177\275\240\"\207\275 \371\277\275\022\206\367\272\311\'\272=Hq\362=\"\275*>\346\005\346=`G\320\275?7K=\351&a\275\325\242\350\275\342\254\233=\374\341`<\177&\307>\355\033\272\275\341H*>o\333\024\275\361z\254=\013*\307\275hEf>4\020\273\275T$\025>\301\204\200\2763O\202\275+d\246=\311\277n\276\212\323\262=i\261\301=\r8\r\276\256\311k\276=\370?\275\323\277\227\275@\361u>\330\233\237=]\305\310;z\201G\276\3006\224=\251\020Z\276\345Wn\275Z\363U<o\031\302\275q\257t>\327[\354\2756\037\246\275p\022\316\276VE\213\275L\265\236\276w\261\224>8\253.\276\317\205\004\276\034\343\254\276\266;\255\275\022\010\256\275E\207\206=\0101\027\275W(O\275\262}\271\275\376Jb\275\017k4\276V5\242\275P\376\025=\'\243\241\276\356*\334=0\267\037>\240\232\263=7J\037=\026\224\016\276\n\376v\2752\360t\276y\020\312\274\324\347]\276\267n\203\275\315\225[=Z?\266\275\252\251h\2752\215\255\2754\033W=\235l\225\276Sq\020\275$\307e\275)jR>\371\035\204\276\210\"\210\276\005d!=\212F\343=GMr\275\031\317\037\275\007\275\273\274\031t)\276\006\255D\276\251\022F\2764\246\005\275wL\307<Z\020K\276-\037R</x\177=:\237;>^q\017>\266\036@\275\014-\220=VF\212\276J\003B\275\026\320P>\356\034\222\275*\215\023\275\307$;\275\3057n\275\212 \n\274\344\301\034=\273\014\033\276\336\276I>\272\371\026<\033M\375=\014\216\320\275 \032\317\276\033\253\222\275k\2301\276\017\341\205\274\034\215\357<\205{Q\276e\003\342<\300\035N=\265\375\021\274])?>\244\235\250=\232LX>\341\376\366\272\372fC>\373\275\351\274\220Y\035>P()=\306\232\037>Sd\314=\272j\024>%\024\036>e\030\276\276\207j.>7H\233\275\002\264\325<\005\326\256\274\303\365\305>\363\276\313\2739\336a=\333\252\200\276h~M\274\214c\213\275\033A\"\2753z\361\275\362\210\224=\006s\251=jC\331=\320\377\204\276\253\360\215>\266\353\017\276\020w\353=W/7>\237\274\262\273Z@\255\272\234\013\016=<\202\237\275\224]^=\365y\023=\317.\206<\362M*\275\321-:>\236\322<>\376 P\276\177\307Y\276\035\210\225\274aJ\033\275\200\262\362\274\375\250)\276SX\316\275\374\265\217=\221/G\276\251\335\001?J\253\210\275EY\202\276\005%\'\273\237\232\347=\211\300\237\274\217\'\310\275\033\311\321; \344\013\276?\275[>\036\227\277=\235,=>9K\202>\222~\204\275Lm\">\247\367R=\261\025|\275\350b9\276\177\254\372\275\025\204\352\275\317\227C={\237\200>u\261\322>F\234\244\275\227\2509\276\375\273\205<\336\177\260\274\211B\343\275\rT\261\275\312\223\222\275\274Gr\275L\250\004\276\231\005M>\232E@\275R}b<Iy@>v \243\274\005F\002>\352\237l\275S,\303=\256\365>\276\276\237k\276;\251R\274\243\202l\276\036\211c\275\265\034\327=\262\226\224\276\341\256I<A\253\255=\377m\004>P.\360=\376\221:>\t\300\025>#\314\213\276\273\205\202\275R\213\364>4\222<<u@c=\343\314\027\276\350\330\372<$5\245\275\277V\036\275qy\201\275\325\020o>h\310\014\275\331 \013>\353|\002\276\232\275\226\276\354R\237\275\n{\274\274\310L\205;\340\r\316=\334L1\276=pH\276\210*\310;Xu\344\275T\370\033>\337\357\264<,\327a\276\213\034Q>\274\226\024>\030\235\201=\230\2367>\3027\267>\213\240X=\014E3\276t2\335\273\304\021\020>\021\345\375\275\211\272\030=\364\000T\275\177\237\234\275\023\374\234\275Usx>\214#\331\275\324O==\335w\216=\245\276\367=\276\362C\276\021\350\370\275\254q\025\276N\010\005\274\325Mz=\372P\323=\30462\275\347J\305\274H\003\250<Z\024\255=-~\224>G\201\r\2758\271L>\321$\256\2757\342\311=\344\360?\275\026\350\003\276\225\242\"\276\000O\353=\274\270\373=\371@\223=\214G\025>\331\033-\276\351\211U=\024a\340\275^\374\027=9Y\277=\2221q>\326F\322>\250\007\305=[L\312\274\325n\342=x\'\030=\344P\310\275\024*\342=\375\213\032\276\246\004\277<\250s\270;\260\370\270\276\220\276\275=\366\303\277<\203N\330</\036\202>l(\016>qa\304=;\315\312\275\273\324\262=\320v\202=\261\275\373=\365\232U\275\365?\330<,]5\275C\252\304=r\325\234<6\213\304\276c\270\016>\374\0234\275;\230\356\275\274`\320\275)\274\200>\263\234G\275\375Co\275Vx\320<\356\251\036>\261\270-\276_O\203<l\377\341\275&\270\177>#b\023\276\262\177$\276\233\264\362=\3132?\276Hz\227\275\237\010\021=&\030\247\275\201z\022\2767\322\025\273\342\332\032=}\274B=\334\354\322\274\233\313\246\275\004\362\321\274\317f\247\275w\231\272=\203,(\276\332\312\311\275\376\313X=\352\257b\275R\346]>/\220\255\275S\364\033>\310\365\202\276\263\016\222=/w\024\276N\270\266\275\327\n\254<\345\036[=9\\W>SN\223=\025RW\276\275u\000>\321\035\212\276\327\245\204=\366S\033\275-\277g=&\244.>\226\3015=\231\313@\276\207\207\237<\221\'\371\273+z\335=B\306\242\275\231#\344\273\244q\236=\225\341\200\275\261\373\000>\275\332\367\275\335\0364\276\261H\302<\330\260\"\274\214\217\307>\252]\371<\314\223A>\036\007t\276V\306\007\276Vn\316\275&aA\276\024\354\313\275\203\245\320=\274$\262>\272zp\274\333\237\236=da\243=0,%\276\370\006O\275\231\366\240\276\315\361\341\275D\202\264\275\351\246\264<\245\316\302\275-\256\230\276\374\214\026=\377\354Y=\010rE=\203\024\373=\035B\025><\206\\\275u\274@\276?\300\271\276\260p\225<\r\231\'>UO\032\275N\367A=\356\354\214<\365\210\026=\266~\222\276\t\253\204\275{\363\243\275\334x\271\275\370\225\002\276\257\201j;y\212\232\276\r]\">\323\213\025\276\255\000F=\n\363\234\275]\362\261\274\275\007\020\275e\277\223\275\022^\351\275\265k\222\275\270@m=0\034w\276\252`\253>\347P\237<3\265\010>64B<sV\017>f\034\316\273\311\020\177\276\253\364\316\275\360\002\274\274\215/\262\275\360\277S\2756P\356\275&Br=\274\221\234\275\267\244^>1\274\265\275\362?\332=u\353s<\013\346\201>\362\rI\275p\346\033\276\354\374\211\275\2319\356\275\373\3222>\234p\241\276\014\315\307<U\r`\276b\343\034\276w8p\275D:\237\275\311\013\323\2743De=\010i\303;H[\241<\016v\277=UX;<\262\260l\276\253\232k<(\244\277\273\013z_\276\207\027?>\302\271\240=\032\345\372=\027\346L>)PE>\020hP>\332\233\241\276\304\205&=2\331\272\275l\205\267\275\322\370\032\276\321\2745=p\314\252=\013\334\275=\214O\002\276\033X\030=j\230\243=\372+V\275\342\025\023\275\332\321\337\275\212\326y=\333o\317=\tqR<a3\326=\244\204\203=19\234\275\034\014\002\274\302^*\276}6c\274\352\020\215\274_.\321<\177\002\025>\337\364o<\336\327\004\276}<>=ol\200\273\222Yh\275\265\343\214=\322|\214=\324\345\271>\272\357\002\276\014\342\373=\354\021]=\357\243\213<d\350\311\275\025\247\036>C\343z\276;\3373>\272^\200\276k\243D=\341\357\002=\216\260*\276\373\034\"=\343\274\244=\217o%\276\235&\251\275\372\332o\275\026/\037\276~WO>\013\304p\274`\347\027\276=\346\002\276\0336#\276\203c3\276\360\014\240<6\347\376<\323\263\000\276-\210t>`\261b\276\005\350\250<\r\335\002\277\240\270\227\275\030G\210\276|\"\025>dD\212\276\233\252)\275`?\217\276\302\251?>+\310\350\275`n)=P\033\210\276\n\343\240=cv\257\276\030\221Z\275t/2\276]\022\277\274\310\371\252<\353\274\333\276\310\250\262=u\000\014><\235\354=\342]\326\275\377;\351\275Z\357 \275]1\177\276\nJv\275D\207-\276\360\226C<O\374P\275\240\231\245\275\333bU=\226\265B\2759y7=\210\244\305\276\222S\n>\312x\314\275\244c{>++/\276!\212\300\276\201\314\010\276\360e\365=:u*\276\253\270N\276\354v\n>\2225\257\276\344Z3\276\006\026K\276\037\304<\275\307\202\375<\237E\253\276\256\222\277\274\2446O=\202]O>\304\027\222=\322 \031=\373GS;\244\032n\276)\302<\276\241\360\r>\340\267\215<&\246\303\275<\315\001\275\232=\022>\326\255\022<\377\315\257=\305\350\222\276\354\260:>\017\272W\274B.^>\027\006\233\273CE\335\276\231\254q\276iE\037\276#C\241<i^V\274\340\370(\276\342\036\304=\376\275\242\275\272\000\327\275L\317\r>8\276\250=\r\356\001>|\010\023=C5\265=$\354\267=x\217\024>\013|:>c\331\027>\255\232s\275r/#>\210.\006>\0078j\276%O:>\352\304e<w\255P\276![+\276+H\246>y\310\264=h\001\356<w\333\r\276Z\336\261=\307*\233\275\371@\217\276\342\220-\276\305\021\207=\3232\234=\256\250\207=`s\006\276\347\261\250\275\277\036\027\276\243\323\365<\330\326\037>\261\271\244\275a\372\362\274\3140]\274\323b\357\275\350\021\003=:\360\365\275\200\315p\276\352e\332\275\212\337\353=\364W\233=a\374\372\274\306b8\276\337\036\t\2761\347\025\276\037\210\302\275g\202\023\276gD\t\276P\330r\275u\r\203\276\251!\260>\006\207\324;\261\220[\276\310\310\234=\223p\250=\214L\250\274\313z\343\273\024\024\321<(\000\030\276\035\260W>\264\001\267=.\205\246=u+\031>\0074\233\275/\231\014>sor=\205\374\322<\035D\"\276\223\357\310\274\n\356l\276\341e\020\275\340\224\217>\356C\245>D5\345\274}\244\211\276\2465E=\215\222\261\275M\2038\276\r\364$\276p\311!\274\363\205\216\275\234\344\037\276.B*>>\304\223\275IbB;\316\371\222=\024\246\265\275\343^\274=\315\342\245\275\004\301\205\275\244\200K\276\361\377\214\276\2050H\273B\212N\276r\232\025\275\267\2146>_\265\265\276s\366g=L,7=\261\206G>Xy\372=\275\037\241>\326\256!>\270\354Z\276t\307e\275\341\327\322>\206\322\034=Q`s=\'\233\016\276R$\305=\013\3264\275\363\203\256\275\303\265\000\276\177\'q>\213|\202\275g?\000>\346\2379\275+\\\235\276QHE\276\233\'\306\275\020yd<\261w\347=\277?\317\275 \020\322\276\204\312%\2763\0224\276\361i)>Y\217T=l\203\257\276\305\005:>\325A\367=\362\203\230=\231\323E>\251Q~>SA\210=\\/\031\275\250\314\323\275\351\343\221>\022@\014\276\204\331\201\275z\340a\275P&\023=!\303\350\274x@\215>!\3312\2767\215\322<\3457\250\275J\361A>\2477\227\275\277\342\213\276\366\316`\276~D\210\275s\342$\274\317xs=\2349o;\247\307\336<\0176Z\273<Y\274=$&`>\332\354\201\2742\005m>\316ux<\2508\304<\332Sj\275\327\333Y\276V\005\373\273AYB=\247J\377\274e\3005>\026\207\335= \312\021\276\3206\211=\252W\204\274\214z\354\275\201[\322=\223\253\211>\370`\265>EZ\023=\223t#\275\311\353\206=\377\200-\273\364\203\306\275\027\330\347=\nHG\276\276\n\202=O:\266<\227%\215\276\363\216\\<\274G\360=\230X;\276\251\223O>\374.T>\322\256$\276U\021V\275E>\216<|\240\031>\376\264Y>\373\0220\276\271\000m\274\024\365\225\275f.\337\274\301\024\324=_\206\251\276\016o$>&&\023\275 \365\322\275\033\025_\275_5\016>\025\352q\275\357@t\275\244}\220=*\"\324=\326\322\200\275&\310\252\275\357KZ\276\365\323u>\247\315\331\275AP+\2768\230A=I4\035\276\262\3153\276nw\222=,\235I\276\235u\017\276\265\014\342=\326^\005=\327\344\365<9\000\223\275\270\337\265\2757\231\023\276]\\\336\274\032\271\346<\366w\215\275\206\225\027=\033\r.<\023jt=0E7>\267\301\213<\265R->\233l\245\276\273\374\226=\017)\377\275\250 \r\276\343z\330\275u\027\274=\251+%>\250.\213>/\375R\276\277\340\225=S\343{\276Y&><\217\246\224\275n\2347\276 \222\375=%\221S\276\031~4\276o\301\021>L\020y\274\026\227\233=\273\277\014\276\267\261\246={\301\213\275l\225(\274\235\213\206=\326\023\234\274\373\226p=Z\375\311\274rn;=\3601\227>\006\214\"=py\017>R\263\226\276\347\376!\276\320\271\236\275\317\351\243\276\0361t\276\002\033\365=\026\315y>r\003!>\305:\235\274Ql\324=@\246\031\276B\267i;\016c\233\276\240\3643\276\344\352\210\274\336b\'\276x\303\300\275(\233\030\276w.\272<\274\2137\275\000Q\t>Mh)>\222\352\327=\033\230\001=I`\233\276\213S\\\276@\030\302=\332\377~>I@0\275\316\036\200=\027WV\275\221\361d=\020\223\334\276\013`~\275\361\352+\276i\245\016\276P`\212\276\347\3670\274=\034\263\2765\r\177>\002\216\361\275\3703\372\274\"\323\343\274u\037\223=\007q\033\276\016|\203\275\337\001d\276\241\3516=#u\030>\324@|\276\357H\224>,